{"pajamas": 27621, "firstly": 15847, "awards": 2982, "dynasties": 23014, "dortmund": 23912, "ist": 21541, "navajo": 22440, "hurricane": 7064, "decisions": 6567, "slice": 14704, "##oslav": 23085, "veterans": 8244, "##iom": 18994, "griffith": 14135, "##nan": 7229, "blocking": 10851, "barked": 17554, "scooped": 20804, "107": 10550, "legislator": 22964, "marsden": 29558, "cadiz": 26342, "##ographic": 13705, "attracting": 15411, "\u9999": 1979, "achilles": 23167, "als": 25520, "unsure": 12422, "dates": 5246, "[unused157]": 162, "##und": 8630, "fortifications": 14507, "##liner": 20660, "##lce": 23314, "cardboard": 19747, "##\u00a5": 29648, "anglia": 24217, "seriously": 5667, "reception": 7684, "armor": 8177, "##ely": 26006, "who": 2040, "grasping": 20854, "##rdy": 17460, "\u0437": 1187, "##brand": 23544, "##ult": 11314, "##ized": 3550, "lore": 19544, "rail": 4334, "proxy": 24540, "died": 2351, "##bling": 9709, "learn": 4553, "libretto": 17621, "[unused818]": 823, "mag": 23848, "freight": 8441, "flavor": 14894, "prism": 26113, "barry": 6287, "conserve": 27749, "sentiments": 23541, "incomplete": 12958, "societal": 23382, "##ad": 4215, "##\u9053": 30483, "[unused574]": 579, "utrecht": 18361, "metabolic": 21453, "fifa": 5713, "interception": 17385, "collaborate": 20880, "season": 2161, "dinosaurs": 18148, "smallest": 10479, "argus": 25294, "##\u3009": 30164, "use": 2224, "organist": 16397, "interviewed": 10263, "await": 26751, "##ola": 6030, "prc": 26141, "humans": 4286, "wetlands": 16630, "##wt": 26677, "##ves": 6961, "fest": 17037, "skyline": 21343, "juno": 20788, "slammed": 7549, "sneak": 13583, "successful": 3144, "j": 1046, "alligator": 28833, "highway": 3307, "##\u00b9": 27904, "rousseau": 26868, "rude": 12726, "##vy": 10736, "diagnosis": 11616, "##cens": 19023, "##lard": 20822, "republished": 24476, "heroic": 14779, "[unused529]": 534, "[unused421]": 426, "[unused956]": 961, "weaker": 15863, "monstrous": 21668, "jesuit": 13840, "union": 2586, "undefeated": 15188, "##oric": 29180, "zombie": 11798, "129": 14378, "clusters": 12906, "speaker": 5882, "thrusting": 21468, "unwanted": 18162, "\u2011": 1514, "##ural": 11137, "attachment": 14449, "[unused849]": 854, "savoy": 16394, "##ee": 4402, "\u5343": 1784, "1654": 27445, "exclusive": 7262, "mistaken": 13534, "observing": 14158, "skinny": 15629, "##ifolia": 29244, "fluttering": 25001, "shuddered": 13937, "asia": 4021, "[unused224]": 229, "[unused152]": 157, "##nche": 26091, "pun": 26136, "[unused768]": 773, "285": 21777, "sorting": 22210, "amour": 21518, "sometime": 8811, "##xie": 16898, "pow": 23776, "penang": 21812, "botanical": 13194, "dentist": 24385, "##\u30a8": 30224, "[UNK]": 100, "universities": 5534, "findings": 9556, "commander": 3474, "hook": 8103, "[unused175]": 180, "##rika": 23778, "reproduce": 21376, "legitimate": 11476, "isabelle": 13942, "benevolent": 25786, "arroyo": 23882, "gentleman": 10170, "75": 4293, "\u4e4b": 1749, "inquiry": 9934, "shawn": 13218, "\u30ed": 1735, "cites": 17248, "dale": 8512, "##edd": 22367, "##nac": 18357, "colin": 6972, "academia": 16926, "adverse": 15316, "nay": 29349, "sore": 14699, "stormy": 24166, "jerking": 22387, "stood": 2768, "proposing": 21991, "vicar": 12340, "##\u0f0d": 29961, "austen": 24177, "dirt": 6900, "verdict": 14392, "dun": 24654, "murder": 4028, "directory": 14176, "1975": 3339, "won": 2180, "barge": 19398, "temptation": 17232, "bubba": 19606, "vessel": 6258, "residual": 21961, "titan": 16537, "airplanes": 24042, "##ayan": 25868, "transforming": 17903, "##\u05e4": 29807, "ing": 13749, "##ats": 11149, "\uff01": 1986, "imply": 19515, "313": 22997, "viruses": 18191, "glands": 23340, "##cion": 10446, "montagu": 26241, "affordable": 15184, "prototype": 8773, "##nitz": 22792, "documenting": 23138, "happen": 4148, "\u533a": 1782, "##bang": 25153, "greene": 11006, "##57": 28311, "570": 24902, "mischief": 25166, "mallory": 20468, "directing": 9855, "##\u03c2": 19579, "threaten": 15686, "mac": 6097, "warrant": 10943, "head": 2132, "indianapolis": 9506, "shield": 6099, "censorship": 15657, "tabloid": 24173, "paints": 23262, "barr": 19820, "differentiated": 24374, "180": 8380, "kia": 27005, "buy": 4965, "stung": 19280, "violation": 11371, "illustrated": 7203, "italianate": 25302, "##\u062a": 29817, "shipbuilding": 16802, "revolving": 24135, "\u3084": 1682, "compromise": 12014, "[unused291]": 296, "frenzy": 21517, "##tology": 23479, "##rou": 22494, "falcons": 14929, "##\u0e25": 29954, "nedra": 28240, "harmed": 25596, "kawasaki": 27324, "im": 10047, "walnut": 18489, "##cini": 27085, "into": 2046, "stony": 16104, "lanka": 7252, "points": 2685, "realizing": 9301, "address": 4769, "##so": 6499, "harlow": 22545, "##\u1d4f": 30037, "##ept": 23606, "columns": 7753, "##zes": 11254, "authoritative": 23949, "##therapy": 20900, "crisis": 5325, "lettering": 25782, "purge": 24694, "hilton": 15481, "reactors": 22223, "lectured": 19206, "lok": 13660, "##dio": 20617, "##\u0290": 29702, "module": 11336, "bk": 23923, "miraculous": 26106, "heck": 17752, "##\u0916": 29852, "[unused37]": 38, "patricia": 10717, "##yt": 22123, "thread": 11689, "##lithic": 28508, "spins": 23371, "sellers": 19041, "driving": 4439, "longest": 6493, "freak": 11576, "##poo": 24667, "parting": 20254, "marijuana": 16204, "composing": 16572, "raleigh": 15842, "perfection": 15401, "favored": 12287, "##ciful": 26336, "saxophone": 8283, "upbringing": 24615, "unfortunately": 6854, "sin": 8254, "played": 2209, "prized": 25695, "christianity": 7988, "sitting": 3564, "1993": 2857, "bingham": 24579, "##text": 18209, "##mani": 20799, "burns": 7641, "currently": 2747, "57": 5401, "##wives": 23744, "contact": 3967, "highness": 17114, "frontal": 19124, "saturn": 14784, "intercontinental": 18725, "##sation": 26652, "earrings": 27212, "skies": 15717, "deng": 26957, "convey": 16636, "##vinsky": 27704, "disperse": 28736, "loch": 14941, "395": 24673, "sullivan": 7624, "##ivision": 24607, "mangrove": 29340, "inherent": 16112, "eurovision": 12714, "transport": 3665, "##chs": 18069, "educators": 19156, "kerr": 14884, "680": 23944, "kilometres": 3717, "1792": 13414, "##etz": 26327, "nobleman": 18487, "hindi": 9269, "theodore": 10117, "islands": 3470, "sarajevo": 18354, "easily": 4089, "\u00ba": 1089, "weighing": 15243, "1738": 28009, "##face": 12172, "swapped": 29176, "gao": 17377, "talents": 11725, "alexia": 21683, "##static": 16677, "unmarked": 25779, "##tell": 23567, "sock": 28407, "kannada": 13873, "##\u1d35": 30029, "##ability": 8010, "turrets": 21088, "forces": 2749, "basalt": 26343, "ride": 4536, "removed": 3718, "amalgamation": 21968, "1621": 27037, "##int": 18447, "arrangement": 6512, "diversity": 8906, "cakes": 22619, "macdonald": 10406, "rehabilitation": 11252, "##lon": 7811, "checked": 7039, "colton": 21000, "parties": 4243, "emphasizes": 20618, "glitter": 27566, "commissioners": 12396, "estimates": 10035, "seating": 10747, "##diment": 21341, "##sper": 17668, "fiona": 13073, "toes": 10393, "fairness": 26935, "sleeper": 24372, "120": 6036, "\u0d9a": 1403, "beyonce": 20773, "##encia": 27742, "hopeful": 17772, "##carbon": 26190, "[unused5]": 6, "##bbing": 23200, "##ia": 2401, "finley": 29194, "##hima": 16369, "napoleon": 8891, "##onale": 22823, "1896": 6306, "##mund": 25574, "stripped": 10040, "vitamin": 17663, "##\u2122": 30108, "hit": 2718, "sonata": 14681, "165": 13913, "munro": 20923, "sustainable": 9084, "shitty": 28543, "besides": 4661, "friedman": 18486, "rustic": 27471, "##for": 29278, "division": 2407, "turned": 2357, "##aith": 22465, "grenade": 17038, "yoon": 24863, "encoding": 17181, "manchu": 26650, "ugly": 9200, "reorganisation": 24934, "valentin": 24632, "diva": 25992, "buzz": 12610, "amherst": 19850, "##llah": 18599, "[unused78]": 79, "##sner": 20479, "malaria": 19132, "##nya": 17238, "drafting": 21168, "prayers": 12583, "pol": 14955, "satisfactory": 23045, "swords": 10689, "concerto": 10405, "absorb": 16888, "xinjiang": 25904, "searched": 9022, "main": 2364, "unesco": 12239, "##haus": 13821, "swing": 7370, "mysterious": 8075, "je": 15333, "##hand": 11774, "relocate": 20102, "##itation": 18557, "##ol": 4747, "scratch": 11969, "tbilisi": 22406, "snacks": 27962, "smyth": 28103, "yield": 10750, "til": 18681, "##\u266d": 24102, "\u5948": 1814, "test": 3231, "[unused714]": 719, "purdue": 19749, "\u535a": 1786, "##lizer": 28863, "tho": 27793, "halo": 17201, "veronica": 13133, "zimbabwe": 11399, "shapiro": 24630, "##powered": 27267, "250": 5539, "readings": 15324, "master": 3040, "instruments": 5693, "semitic": 20604, "##\u09af": 29907, "[unused4]": 5, "##thest": 20515, "bates": 11205, "masses": 11678, "plastic": 6081, "##enbach": 21409, "mainly": 3701, "[unused951]": 956, "northwards": 27592, "dumont": 25830, "administratively": 23710, "##yi": 10139, "alteration": 26014, "graceful": 19415, "richly": 26502, "aimed": 6461, "composer": 4543, "shuffled": 18764, "stack": 9991, "cicero": 23080, "uptown": 28539, "44th": 26409, "hoop": 27669, "kathmandu": 28045, "failing": 7989, "jaipur": 28355, "##eza": 28640, "##dge": 11818, "morales": 17103, "storylines": 22628, "outdoor": 7254, "1950": 3925, "hymns": 17777, "engineering": 3330, "internacional": 27607, "reactivated": 28577, "##\u10d9": 29982, "plug": 13354, "##bots": 27014, "ping": 17852, "surpassing": 27097, "withdraw": 10632, "1979": 3245, "##bles": 13510, "productive": 13318, "bolivar": 22118, "##khan": 26370, "ferry": 7115, "##orio": 27416, "wigan": 15598, "favourite": 8837, "nascar": 11838, "406": 27433, "finalists": 13527, "ventured": 20510, "[unused499]": 504, "##\u667a": 30395, "cleansing": 26799, "intend": 13566, "139": 16621, "prominence": 12144, "[unused809]": 814, "spice": 17688, "wiley": 18825, "\u0932": 1334, "##\u5742": 30329, "intuition": 26406, "[unused370]": 375, "frogs": 17582, "vents": 28287, "pic": 27263, "attendees": 19973, "outs": 21100, "[unused129]": 134, "plotted": 27347, "[unused62]": 63, "huang": 15469, "periodically": 18043, "##vah": 21927, "boise": 23193, "##aga": 16098, "##sty": 21756, "recognise": 17614, "keys": 6309, "1716": 28204, "ballad": 11571, "##kaya": 20718, "costly": 17047, "length": 3091, "\u6a4b": 1885, "##zy": 9096, "calculate": 18422, "legends": 9489, "exceed": 13467, "vertex": 19449, "##\u0142": 18818, "##enna": 24397, "##orf": 16347, "registering": 25719, "##tablished": 28146, "##\u0647": 14157, "substances": 13978, "accepts": 13385, "##eded": 19082, "privateer": 26790, "ambitions": 19509, "##\u2071": 30072, "noises": 14950, "smirked": 18775, "landon": 20642, "[unused751]": 756, "cochrane": 22329, "##chel": 15721, "##neuve": 28104, "checking": 9361, "insights": 20062, "##zuka": 22968, "midland": 12240, "kevin": 4901, "##aca": 19629, "carlos": 5828, "[unused946]": 951, "##rance": 21621, "blanchard": 26870, "syed": 19740, "structurally": 29060, "##mona": 21781, "tyson": 19356, "##borg": 11755, "dat": 23755, "##iidae": 15648, "islanders": 16422, "wren": 16255, "hollywood": 5365, "road": 2346, "neighbourhoods": 27535, "nominate": 23388, "##working": 21398, "[unused59]": 60, "marriages": 12743, "authorized": 9362, "discusses": 15841, "##sibility": 28255, "cursing": 19752, "curriculum": 8882, "##ision": 19969, "keeping": 4363, "curses": 23897, "##\u30bb": 30234, "baseball": 3598, "[unused510]": 515, "##gizing": 28660, "shorts": 9132, "molecular": 8382, "compton": 18592, "dude": 12043, "chain": 4677, "trench": 14185, "shiva": 12535, "##cies": 9243, "[unused915]": 920, "packaged": 21972, "switched": 7237, "bosses": 23029, "moscow": 4924, "rendition": 19187, "##cal": 9289, "jay": 6108, "nests": 17415, "##nar": 11802, "convicts": 24948, "stuck": 5881, "soho": 23771, "schwarz": 29058, "diminished": 15911, "ash": 6683, "crunch": 24514, "\u0f42": 1426, "##\u2033": 30067, "event": 2724, "designation": 8259, "helmets": 22674, "ptolemy": 23517, "haunted": 11171, "##ffie": 29055, "potter": 10693, "\u2229": 1604, "vacuum": 11641, "sorority": 27600, "rents": 28206, "##ing": 2075, "mandatory": 10915, "copper": 6967, "##\u2207": 30123, "##ddy": 14968, "uncredited": 8104, "[unused351]": 356, "singapore": 5264, "da": 4830, "##\u30ef": 30262, "dickens": 19675, "aston": 14327, "\u0639": 1288, "romanized": 7651, "reddish": 14182, "wright": 6119, "choir": 6596, "jade": 12323, "##minate": 19269, "[unused640]": 645, "59": 5354, "developed": 2764, "mainstream": 7731, "nicolas": 9473, "roderick": 28326, "punk": 7196, "retaining": 12823, "imam": 17189, "forewings": 13211, "goodman": 14514, "##anza": 16076, "oldham": 18285, "##dry": 21190, "walking": 3788, "risking": 26875, "stroking": 14943, "rebecca": 9423, "frontman": 21597, "mated": 28795, "##ever": 22507, "geraldine": 26987, "\u0111": 1102, "histories": 15215, "##lta": 24458, "subset": 16745, "multiple": 3674, "##ers": 2545, "lima": 12967, "[unused700]": 705, "stabilize": 27790, "[unused143]": 148, "##\u4ebb": 30283, "rt": 19387, "milos": 26038, "dolores": 21544, "avon": 16131, "talks": 7566, "cutting": 6276, "blackened": 25788, "##gers": 15776, "walls": 3681, "##door": 23835, "galley": 27124, "[unused992]": 997, "surely": 7543, "crazed": 28343, "soluble": 24345, "enthusiasts": 20305, "derelict": 28839, "tactic": 19717, "consolidation": 17439, "onstage": 23542, "segunda": 19071, "[unused44]": 45, "somerset": 9198, "prom": 20877, "cables": 15196, "luigi": 15153, "##\u1d2c": 30026, "bow": 6812, "chesapeake": 20867, "tae": 22297, "route": 2799, "statements": 8635, "##gar": 6843, "kristen": 22435, "##oza": 25036, "composure": 23619, "##mere": 13759, "##genase": 28835, "ph": 6887, "frustrating": 25198, "dudley": 12648, "opposing": 10078, "[unused275]": 280, "341": 28358, "\u702c": 1905, "huntsville": 28492, "sacks": 14918, "swimmers": 21669, "arranger": 13981, "close": 2485, "scramble": 25740, "[unused846]": 851, "enamel": 29484, "##sed": 6924, "superhuman": 27061, "[unused957]": 962, "##ulia": 20922, "actually": 2941, "generosity": 26161, "##ces": 9623, "identifiable": 27800, "##tained": 28055, "impairment": 25172, "generals": 11593, "morale": 19292, "translucent": 22897, "##oth": 14573, "##urt": 19585, "lit": 5507, "respected": 9768, "kite": 20497, "hacking": 23707, "roanoke": 25899, "quarries": 27069, "mw": 12464, "disposed": 21866, "early": 2220, "##kam": 27052, "[unused531]": 536, "rom": 17083, "##\u5b9a": 30348, "[unused46]": 47, "marcus": 6647, "tomas": 12675, "projectile": 25921, "\u1110": 1467, "##cz": 27966, "##ptic": 20746, "paths": 10425, "ioc": 25941, "rodney": 13898, "##\u308b": 30213, "malaya": 19979, "odds": 10238, "cornish": 17797, "chin": 5413, "fifth": 3587, "tops": 13284, "chilled": 23362, "orthodox": 6244, "types": 4127, "pin": 9231, "##aro": 10464, "libby": 19533, "##11": 14526, "leith": 29011, "ancestry": 11377, "twin": 5519, "andhra": 14065, "##bi": 5638, "rug": 20452, "inwardly": 28710, "sudanese": 25603, "switches": 15924, "vowed": 18152, "incident": 5043, "\u09ad": 1369, "##athic": 20972, "taste": 5510, "communist": 4750, "271": 25103, "protective": 9474, "yahoo": 20643, "theaters": 12370, "1733": 27230, "dispersed": 15484, "##ur": 3126, "clauses": 24059, "##bana": 19445, "##26": 23833, "\u307e": 1677, "##ail": 12502, "##\u0294": 29705, "similarly": 6660, "fabricated": 24212, "mcgraw": 24179, "businessman": 6883, "sculptor": 10160, "\u025b": 1115, "westchester": 25489, "impact": 4254, "madeira": 27309, "afghanistan": 7041, "constabulary": 23791, "##sari": 22740, "lodge": 7410, "were": 2020, "##eva": 13331, "##orne": 23846, "shotgun": 13305, "##hammer": 19742, "commissioner": 5849, "vertigo": 28246, "secretly": 10082, "independents": 23756, "reviewers": 15814, "estate": 3776, "administer": 21497, "template": 23561, "piloted": 27220, "\u82f1": 1941, "\u2079": 1543, "melting": 13721, "explaining": 9990, "##yd": 25688, "pi": 14255, "americana": 25988, "alonso": 17649, "manufacturers": 8712, "telescopes": 28026, "layout": 9621, "##iere": 21253, "hbo": 14633, "genuinely": 15958, "eliminate": 11027, "doris": 15467, "yo": 10930, "swallowed": 7351, "##born": 10280, "pinned": 11807, "vegetation": 10072, "lock": 5843, "rise": 4125, "experiencing": 13417, "consecration": 24730, "[unused908]": 913, "watered": 27129, "dreadful": 21794, "cretaceous": 18122, "battered": 17548, "dinamo": 22306, "##ntes": 17340, "mcdonald": 9383, "quinn": 8804, "mor": 22822, "[unused25]": 26, "##\u5409": 30319, "exists": 6526, "taxpayers": 26457, "faye": 19243, "##kovich": 28195, "waters": 5380, "nagar": 16395, "remixes": 15193, "intrigued": 18896, "##ower": 25114, "cage": 7980, "##dalen": 26414, "[unused948]": 953, "##nts": 7666, "nationalist": 8986, "draft": 4433, "herald": 9536, "instantly": 6880, "##yre": 16363, "wives": 10403, "superman": 10646, "##vac": 24887, "switching": 11991, "##end": 10497, "thistle": 24328, "disregard": 27770, "derbyshire": 15207, "angled": 18756, "circuit": 4984, "bleeding": 9524, "fountains": 23497, "pu": 16405, "##\u11a8": 30020, "does": 2515, "##jk": 15992, "samuel": 5212, "##\\": 29635, "schleswig": 21173, "chinese": 2822, "whitish": 16800, "##wr": 13088, "sawyer": 13975, "orbit": 8753, "surreal": 16524, "disrupt": 23217, "rejoined": 14311, "[unused519]": 524, "neurological": 23130, "[unused706]": 711, "##ator": 8844, "nuns": 16752, "capitals": 15433, "##cos": 13186, "##fine": 23460, "japanese": 2887, "swollen": 13408, "drury": 25663, "soprano": 10430, "##bf": 29292, "drummond": 19266, "alignment": 12139, "peterson": 12001, "jim": 3958, "##gible": 18507, "algae": 18670, "\u9593": 1969, "bohemia": 16799, "caspian": 25893, "amara": 28599, "tod": 28681, "engine": 3194, "violating": 20084, "scowl": 19981, "##u": 2226, "unsafe": 25135, "harald": 20966, "16": 2385, "mala": 28935, "1747": 24522, "##hp": 22269, "\ufb01": 1984, "arthur": 4300, "grandson": 7631, "\u0995": 1353, "implant": 27159, "1904": 5692, "[unused584]": 589, "drive": 3298, "peggy": 14911, "cremated": 28376, "backward": 8848, "pottery": 11378, "justified": 15123, "##nction": 27989, "##logic": 27179, "laughs": 11680, "complementary": 21053, "\u0e21": 1415, "orbiting": 26472, "\u30f3": 1737, "adelaide": 7364, "shell": 5806, "passions": 25289, "prevented": 8729, "knowles": 22815, "ipod": 26322, "trojan": 23445, "pull": 4139, "erection": 13760, "stalker": 23883, "liechtenstein": 26500, "dozens": 9877, "beak": 23525, "\u099a": 1356, "chemotherapy": 27144, "ict": 25891, "wit": 15966, "clements": 28572, "allegiance": 14588, "##nation": 9323, "distinguished": 5182, "negotiation": 19905, "belongs": 7460, "descriptions": 13271, "salisbury": 13817, "inappropriate": 15884, "threats": 8767, "those": 2216, "##rator": 16259, "criticised": 10648, "1664": 28485, "660": 20982, "advisers": 24205, "huntington": 16364, "49th": 25726, "choreographer": 17334, "encircled": 25759, "subconscious": 27952, "tulsa": 16631, "lyons": 16642, "hatch": 11300, "replica": 15059, "\u66f8": 1871, "sc": 8040, "rhys": 13919, "elderly": 9750, "stare": 6237, "selfish": 14337, "hurriedly": 23878, "##sum": 17421, "drinks": 8974, "verified": 20119, "american": 2137, "philipp": 20765, "[unused425]": 430, "draper": 23641, "smirk": 15081, "impaired": 18234, "formations": 13197, "demonstrates": 16691, "f1": 20069, "1951": 4131, "upset": 6314, "##\u05de": 29801, "\u0921": 1321, "trimmed": 21920, "seminar": 18014, "##\u5834": 30332, "playhouse": 17408, "inland": 9514, "##taking": 17904, "##oop": 18589, "revered": 23886, "cheney": 23745, "armenia": 10110, "brigadier": 9900, "1924": 4814, "throws": 11618, "trains": 4499, "greenville": 20967, "l": 1048, "combine": 11506, "homo": 24004, "redhead": 26705, "implementations": 24977, "townsend": 16139, "[unused264]": 269, "assessing": 20077, "kyiv": 25669, "preserving": 15224, "citing": 8951, "barbarians": 28056, "bands": 4996, "desires": 14714, "sign": 3696, "dripped": 22526, "##kic": 29493, "social": 2591, "alias": 14593, "rte": 20375, "tanaka": 21829, "universidad": 16501, "fungal": 28079, "anglo": 7819, "receptions": 16466, "[unused594]": 599, "morals": 25288, "persecuted": 27666, "samsung": 19102, "odd": 5976, "eroded": 23300, "\u6587": 1861, "filipino": 10275, "anchors": 24674, "convinces": 19480, "##cum": 24894, "##ggy": 22772, "faulkner": 25109, "##nessy": 25441, "##ena": 8189, "sharma": 14654, "##rea": 16416, "sarawak": 21546, "racist": 16939, "accompanying": 10860, "##rf": 12881, "1625": 26263, "ochreous": 23474, "sophomore": 13758, "burned": 5296, "##vara": 24516, "##nza": 16786, "ranks": 6938, "##cl": 20464, "bars": 6963, "[unused179]": 184, "redeveloped": 28053, "painter": 5276, "yugoslavia": 8936, "advised": 9449, "portland": 6734, "1651": 29077, "kassel": 27884, "till": 6229, "f": 1042, "automatically": 8073, "john": 2198, "gb": 16351, "\u110b": 1463, "wagner": 10304, "concepts": 8474, "##lad": 27266, "congressional": 7740, "charters": 23010, "weird": 6881, "forgetting": 17693, "open": 2330, "integrated": 6377, "ships": 3719, "##85": 27531, "tuning": 17372, "alexis": 13573, "snaps": 20057, "forgiven": 24280, "morocco": 9835, "##6th": 25994, "[unused433]": 438, "##\u2022": 30063, "frequent": 6976, "md": 9108, "laughter": 7239, "utilities": 16548, "betty": 9306, "dollar": 7922, "outcomes": 13105, "##igraphy": 23132, "##eries": 28077, "achieving": 10910, "1938": 4260, "drills": 28308, "560": 21267, "sebastian": 6417, "id": 8909, "fitzroy": 21870, "##national": 25434, "pharmaceutical": 13859, "##tical": 14656, "robber": 27307, "momentary": 29089, "concord": 16557, "humiliating": 28284, "bosch": 25936, "maker": 9338, "dinners": 29236, "shri": 14880, "pedestal": 24496, "hoc": 21929, "barbed": 25007, "##rso": 25301, "##antes": 24985, "projection": 13996, "felix": 8383, "##fr": 19699, "particles": 9309, "surrounded": 5129, "[unused725]": 730, "hamburg": 8719, "kilometer": 20595, "##ll": 3363, "scalp": 21065, "avenues": 20859, "345": 23785, "##\u0924": 29859, "savage": 9576, "thrash": 27042, "months": 2706, "earnest": 17300, "flanks": 23547, "slopes": 10314, "##ntal": 15758, "##rys": 24769, "awaited": 19605, "simi": 28684, "accompaniment": 22205, "laval": 26205, "safer": 13726, "physiological": 19389, "##rda": 13639, "squads": 20191, "thru": 27046, "shopping": 6023, "bala": 21451, "denise": 15339, "joshi": 26645, "##oh": 11631, "dane": 14569, "impulse": 14982, "poe": 18922, "heels": 8265, "##pe": 5051, "burnett": 13829, "holidays": 11938, "stuttgart": 13022, "georgian": 9166, "fortification": 23050, "##via": 9035, "[unused165]": 170, "##hini": 20535, "##ostal": 29381, "##\u6a39": 30410, "##gni": 29076, "mice": 12328, "michelangelo": 27701, "importance": 5197, "fay": 23201, "detecting": 25952, "##claim": 25154, "dimension": 9812, "hodges": 19772, "uprising": 10138, "dover": 13985, "thinking": 3241, "wight": 20945, "48th": 27787, "airfields": 25278, "temps": 29023, "\u2191": 1584, "stared": 3592, "sonia": 16244, "winked": 14217, "1626": 28818, "rock": 2600, "drifting": 15013, "owens": 14824, "##bold": 27495, "##\u5e1d": 30364, "##cards": 17965, "axe": 12946, "[unused666]": 671, "infrared": 14611, "benji": 27231, "mina": 19808, "hooper": 23717, "existent": 25953, "leone": 13363, "tugs": 29306, "moody": 14434, "##selle": 19358, "random": 6721, "valuation": 26004, "##lism": 28235, "tran": 25283, "developments": 8973, "many": 2116, "lawrence": 5623, "pakistani": 9889, "##raphic": 20721, "childbirth": 27162, "lp": 6948, "clinics": 17865, "tension": 6980, "folds": 15439, "injection": 13341, "unveiled": 11521, "##\u06a9": 29841, "##tam": 15464, "##sfield": 15951, "anniversary": 5315, "##iff": 13355, "1974": 3326, "engaged": 5117, "some": 2070, "guineas": 22385, "extensions": 14305, "obstruction": 27208, "monitor": 8080, "##bound": 15494, "outraged": 23558, "remastered": 19484, "greco": 18180, "coarse": 20392, "craft": 7477, "##chen": 8661, "fortified": 13313, "marshal": 8610, "tolerance": 13986, "rabbi": 7907, "accidentally": 9554, "halted": 12705, "##endez": 28787, "##\u221a": 30127, "statute": 11671, "rink": 18416, "benz": 17770, "[unused112]": 117, "seizing": 24681, "musically": 21385, "##rcle": 21769, "confirmation": 13964, "leopold": 12752, "prisoners": 5895, "lei": 26947, "streams": 9199, "400": 4278, "peasants": 13193, "migrant": 20731, "broad": 5041, "##\u30aa": 30225, "[unused870]": 875, "\u03ba": 1164, "res": 24501, "fortunes": 18023, "##broken": 29162, "gravel": 11127, "cracks": 15288, "uefa": 6663, "fundraising": 15524, "##nding": 15683, "\u4e0a": 1742, "##vances": 26711, "realise": 19148, "hussain": 20093, "\u8a01": 1949, "decreasing": 16922, "sidewalks": 28386, "alam": 26234, "akbar": 20730, "412": 25873, "extraordinary": 9313, "ever": 2412, "natal": 17489, "replication": 21647, "arousal": 18905, "tangled": 14170, "760": 24643, "henry": 2888, "##ife": 29323, "humane": 23369, "timed": 22313, "##\u0441": 29747, "anyone": 3087, "surveillance": 9867, "overcoming": 27363, "citations": 22921, "##lay": 8485, "experimented": 20918, "hunted": 14682, "disguised": 17330, "clips": 15281, "wheelbase": 29141, "##row": 10524, "affiliation": 12912, "empress": 10248, "ought": 11276, "stock": 4518, "genetics": 14471, "gun": 3282, "##hm": 14227, "compression": 13379, "operatives": 25631, "libertadores": 27968, "asean": 27974, "##child": 19339, "sigma": 13201, "danger": 5473, "prescribed": 16250, "opposed": 4941, "protest": 6186, "claudio": 19569, "bacterium": 24024, "angle": 6466, "[unused987]": 992, "1715": 22606, "unfit": 29439, "hay": 10974, "stalking": 20070, "constituents": 24355, "\u592b": 1813, "hs": 26236, "eugen": 29273, "##phobia": 24920, "matrix": 8185, "omaha": 12864, "invasive": 17503, "##zhi": 19436, "1016": 28707, "distressed": 24305, "maybe": 2672, "flood": 7186, "hired": 5086, "havre": 28890, "##age": 4270, "##\u56d7": 30323, "geography": 10505, "##list": 9863, "##neil": 27276, "navarro": 23524, "lifestyle": 9580, "interpretations": 15931, "nazi": 6394, "[unused860]": 865, "slip": 7540, "presenting": 10886, "tilt": 17010, "departure": 6712, "interacting": 21935, "mainland": 8240, "##ei": 7416, "[unused659]": 664, "toll": 9565, "glances": 13021, "liv": 22135, "ambassador": 6059, "lava": 13697, "glared": 9400, "rats": 11432, "\u09aa": 1367, "##rr": 12171, "sprawled": 21212, "disabilities": 13597, "##iman": 18505, "commodity": 19502, "drew": 3881, "##sant": 22341, "cher": 24188, "[unused348]": 353, "##wide": 22517, "republic": 3072, "differed": 19541, "belonging": 7495, "hatred": 11150, "fabian": 21174, "project": 2622, "yvonne": 21684, "creek": 3636, "finalized": 23575, "1819": 12552, "##\u0939": 29875, "conqueror": 25466, "firefighters": 21767, "298": 27240, "tuition": 15413, "whitman": 21311, "skinner": 17451, "##24": 18827, "enemy": 4099, "faculties": 18658, "temperature": 4860, "cochran": 28506, "masters": 5972, "ambiguity": 27637, "injured": 5229, "[unused430]": 435, "procedure": 7709, "encouragement": 15846, "exhaled": 16242, "ui": 21318, "prem": 26563, "[unused712]": 717, "##tive": 6024, "horizontally": 23190, "jean": 3744, "drilling": 15827, "##quent": 15417, "##bain": 29148, "derry": 17455, "ellington": 21630, "\u02e4": 1154, "surrounding": 4193, "##\u1d49": 30035, "smaller": 3760, "embryo": 28086, "##rrier": 27051, "pictures": 4620, "barges": 27712, "rushed": 6760, "hampshire": 7035, "both": 2119, "ambassadors": 20986, "##id": 3593, "hapoel": 24208, "brighter": 16176, "glance": 6054, "wnba": 25554, "draws": 9891, "yourself": 4426, "ass": 4632, "##\u1167": 30010, "schwartz": 16756, "##tov": 26525, "ruth": 7920, "assure": 14306, "warped": 25618, "\u2026": 1529, "1683": 27414, "[unused509]": 514, "external": 6327, "ending": 4566, "##\u3001": 30161, "##cure": 23887, "##rrie": 22155, "##bah": 24206, "##des": 6155, "##vite": 25217, "##ught": 18533, "manners": 14632, "dina": 26146, "guthrie": 19952, "\u02bf": 1148, "donation": 13445, "1825": 11384, "war": 2162, "agile": 29003, "staring": 4582, "##trom": 13887, "overlook": 27590, "hardwood": 23165, "calmly": 12885, "[unused550]": 555, "texts": 6981, "offences": 18421, "ottomans": 17774, "##cake": 17955, "accommodations": 26167, "##atory": 14049, "clashes": 17783, "1957": 3890, "rely": 11160, "poor": 3532, "ordnance": 14445, "broker": 20138, "comte": 19758, "detroit": 5626, "glaring": 16124, "horrified": 14603, "[unused913]": 918, "capitol": 9424, "cheryl": 19431, "quay": 21048, "1730": 23272, "scholar": 6288, "demetrius": 28367, "##\u3051": 30180, "brahms": 28419, "buchanan": 14349, "cesare": 26708, "##nes": 5267, "##chio": 23584, "deteriorating": 28440, "marlene": 26921, "provided": 3024, "pleas": 22512, "narrowly": 11866, "moths": 14885, "shirt": 3797, "sway": 17812, "##crest": 25313, "rohan": 28605, "\u7fa9": 1936, "vijay": 17027, "gi": 21025, "sense": 3168, "##anal": 27953, "##atal": 27815, "poultry": 22468, "##ross": 25725, "chew": 21271, "##rco": 29566, "liberation": 7931, "##ar": 2906, "\u0563": 1221, "##athan": 29246, "uninhabited": 24749, "\u5b80": 1818, "cornerback": 26857, "##acies": 20499, "organizing": 10863, "witches": 12566, "snakes": 12971, "muslims": 7486, "airbus": 20901, "##yuan": 17236, "##oro": 14604, "martina": 23508, "cannabis": 17985, "nicky": 20158, "discreet": 29321, "programming": 4730, "principally": 16552, "creamy": 24519, "goethe": 23173, "sweeping": 12720, "printers": 23557, "slade": 18048, "\u20b9": 1576, "uk": 2866, "strategically": 23972, "fresh": 4840, "##sbury": 18065, "##mata": 21022, "wartime": 12498, "suited": 10897, "multinational": 20584, "##sdale": 15145, "salute": 17664, "southeast": 4643, "partners": 5826, "##bruck": 28985, "bacterial": 17341, "federally": 20892, "weighs": 21094, "pulling": 4815, "pussy": 22418, "injunction": 22928, "ambush": 15283, "perched": 17335, "##dham": 17661, "experiments": 7885, "tenderly": 26596, "nationalism": 14594, "bi": 12170, "luckily": 15798, "ceded": 19705, "intellectual": 7789, "ou": 15068, "##\u05dd": 29800, "##ith": 8939, "prevalence": 20272, "##asse": 27241, "1779": 17616, "excuse": 8016, "ibn": 7839, "totaling": 21798, "##waite": 29601, "[unused736]": 741, "advisor": 8619, "##\u0965": 29881, "##\u2665": 30152, "guards": 4932, "pas": 14674, "downs": 12482, "\u2032": 1531, "travel": 3604, "annals": 16945, "poetry": 4623, "upstate": 29530, "jingle": 29262, "thump": 21324, "##\u2032": 30066, "1822": 12307, "\u00ac": 1078, "\u00e6": 1097, "flirting": 20661, "fastest": 7915, "wisconsin": 5273, "##\u0baf": 29926, "provocative": 26422, "accusation": 19238, "##genic": 16505, "kinetic": 20504, "ft": 3027, "##oms": 22225, "casper": 24602, "690": 28066, "condensed": 25011, "\u590f": 1808, "##rling": 22036, "gubernatorial": 19100, "bjp": 24954, "##\u30ed": 30261, "##erie": 17378, "aurora": 13158, "nhs": 17237, "bolted": 18088, "##ezer": 25733, "##fy": 12031, "contend": 27481, "rebound": 27755, "##chet": 20318, "nominee": 9773, "##iter": 21646, "\u092c": 1329, "documentation": 12653, "subfamily": 10946, "pavement": 14271, "dong": 11947, "andre": 7213, "##uted": 12926, "amplifier": 22686, "scribe": 27789, "semi": 4100, "powder": 9898, "poets": 9736, "arise": 13368, "operate": 5452, "381": 29335, "##\u5730": 30328, "##\u0f66": 29972, "407": 28941, "breakaway": 26321, "##ala": 7911, "1952": 3999, "penetrating": 22391, "[unused610]": 615, "##cat": 11266, "finalist": 9914, "sunset": 10434, "exaggerated": 16903, "belonged": 6272, "dew": 24903, "gambia": 26728, "wolverine": 22162, "##sol": 19454, "bundle": 14012, "captures": 19566, "220": 10545, "##ura": 4648, "taliban": 16597, "josef": 12947, "rate": 3446, "glimpse": 12185, "327": 28469, "mu": 14163, "##\u064a": 14498, "malayalam": 12998, "revenues": 12594, "knob": 16859, "predatory": 21659, "orchards": 22976, "tubes": 10868, "hills": 4564, "headquartered": 9403, "\u7537": 1912, "alexander": 3656, "surrounds": 20626, "ears": 5551, "bobo": 27418, "resolved": 10395, "verbs": 16025, "##ain": 8113, "blindly": 25734, "[unused266]": 271, "##lateral": 28277, "evidenced": 21328, "##chia": 20881, "imagination": 9647, "titled": 4159, "gibbs": 15659, "prose": 12388, "plunged": 16687, "ahl": 18347, "##erty": 15010, "bidding": 17534, "bluegrass": 21286, "##\u2019": 30056, "schizophrenia": 23683, "jana": 23341, "construct": 9570, "[unused388]": 393, "warwick": 13283, "[unused445]": 450, "assent": 27195, "325": 19652, "buff": 23176, "\u0292": 1138, "transmitter": 11659, "flooded": 10361, "connell": 17199, "holdings": 9583, "mimic": 23150, "czech": 5569, "kepler": 28219, "ff": 21461, "robbed": 20114, "117": 12567, "prolonged": 15330, "jessica": 8201, "vet": 29525, "waved": 7147, "##market": 20285, "halves": 23672, "pseudonym": 13881, "bournemouth": 22882, "winkler": 20472, "sic": 14387, "aug": 15476, "##dre": 16200, "ed": 3968, "linked": 5799, "inventory": 12612, "wah": 22894, "anonymous": 10812, "##birds": 12887, "plant": 3269, "##pher": 27921, "##tte": 4674, "slippery": 22274, "##mac": 22911, "230": 11816, "dealing": 7149, "chunk": 20000, "ancestral": 14947, "##sible": 19307, "##\u66f2": 30396, "abusive": 20676, "##ilo": 22360, "tainted": 26392, "sprinted": 25156, "gossip": 13761, "announced": 2623, "ama": 25933, "choose": 5454, "jurassic": 19996, "subsidiaries": 20178, "ensure": 5676, "deserted": 12768, "##\u5341": 30309, "schooling": 14118, "##itis": 13706, "249": 23628, "##ffin": 15379, "elastic": 21274, "[SEP]": 102, "\u266f": 1628, "plantations": 14979, "hussein": 16543, "function": 3853, "bartlett": 20081, "labeled": 12599, "enter": 4607, "ambiguous": 20080, "disadvantage": 20502, "climbing": 8218, "priority": 9470, "pointless": 23100, "subordinate": 15144, "##ose": 9232, "controls": 7711, "backlash": 25748, "conference": 3034, "yankees": 11081, "exasperated": 24379, "scouts": 10158, "malibu": 29047, "\u3053": 1655, "screenwriter": 11167, "pumped": 16486, "elusive": 26475, "singh": 5960, "maddy": 20789, "[unused301]": 306, "residues": 22644, "##iv": 12848, "##sic": 19570, "violations": 13302, "resident": 6319, "\u2c7c": 1631, "##athing": 22314, "vickers": 18571, "documentary": 4516, "##chrome": 20366, "haired": 10681, "256": 17273, "seize": 15126, "drill": 12913, "bungalow": 27563, "narrative": 7984, "sato": 20251, "inspirational": 28676, "[unused173]": 178, "martinique": 29365, "annoyed": 11654, "boil": 26077, "##st": 3367, "##uni": 19496, "[unused964]": 969, "freezing": 12809, "tent": 9311, "loosen": 29476, "thrust": 7400, "dolls": 14421, "prefix": 17576, "##ised": 5084, "pensions": 22024, "pollock": 25218, "##git": 23806, "effectively": 6464, "shipment": 22613, "landfall": 21042, "pauline": 15595, "courtney": 14139, "spores": 23763, "stefan": 8852, "floors": 8158, "leading": 2877, "##\u0638": 29829, "lou": 10223, "extension": 5331, "##\u0985": 29883, "strife": 27865, "venezuela": 8326, "supplies": 6067, "platt": 28005, "thorough": 16030, "sizes": 10826, "enlist": 28845, "only": 2069, "youngest": 6587, "saratoga": 23136, "robbins": 18091, "inhibit": 26402, "tea": 5572, "##pole": 15049, "cars": 3765, "[unused841]": 846, "enabling": 12067, "##\u52dd": 30306, "##ry": 2854, "distress": 12893, "ul": 17359, "versions": 4617, "peng": 26473, "cape": 4880, "words": 2616, "\u5c71": 1831, "appeal": 5574, "jakob": 19108, "##agawa": 20812, "dressing": 11225, "bowled": 19831, "equivalence": 27841, "##dai": 21351, "southwestern": 8772, "sank": 7569, "tropical": 5133, "[unused463]": 468, "\u6b66": 1889, "##pool": 16869, "initial": 3988, "citizens": 4480, "##chers": 21844, "ukraine": 5924, "##adan": 26335, "apartment": 4545, "##ception": 24422, "fights": 9590, "jamaica": 9156, "##\u5c71": 30357, "metabolism": 18089, "##di": 4305, "discus": 26047, "protestant": 8330, "##\u1d56": 30040, "##bial": 21102, "mann": 10856, "##nd": 4859, "pulitzer": 17618, "##leton": 19263, "##ther": 12399, "encoded": 12359, "voltage": 10004, "questioning": 11242, "[unused631]": 636, "hoover": 17443, "1963": 3699, "breakers": 24742, "##\u2202": 30120, "bop": 29432, "tribes": 6946, "\u5bae": 1824, "motives": 17108, "hu": 15876, "##nous": 18674, "balkans": 19733, "\u10dd": 1450, "threw": 4711, "cortes": 22242, "##\u0280": 29693, "edit": 10086, "browning": 18778, "panzer": 16946, "learners": 26262, "batman": 8942, "\u02b0": 1140, "##ogan": 21131, "shark": 11420, "experienced": 5281, "dialogues": 22580, "incarcerated": 23995, "##uru": 14129, "craftsmen": 25736, "fluttered": 18360, "traverse": 20811, "ensuring": 12725, "##iable": 19210, "##bius": 17028, "layer": 6741, "##lch": 29358, "battery": 6046, "ljubljana": 21588, "inequality": 16440, "[unused731]": 736, "\u03b1": 1155, "traced": 9551, "baseman": 18038, "battista": 28422, "grasslands": 26183, "wilderness": 9917, "##arding": 29154, "lucha": 25390, "rotary": 16933, "competitor": 12692, "immigration": 7521, "##car": 10010, "##ischen": 24488, "origins": 7321, "suspiciously": 21501, "least": 2560, "vines": 16702, "wicked": 10433, "yell": 14315, "reused": 26513, "blanket": 8768, "regis": 20588, "brianna": 25558, "custody": 9968, "##vich": 12933, "decision": 3247, "paralympic": 17029, "controversy": 6704, "crotch": 28629, "trapping": 22977, "##not": 17048, "perfect": 3819, "announce": 14970, "graduate": 4619, "countdown": 18144, "heaved": 19970, "controlling": 9756, "slacks": 27786, "amplifiers": 28633, "confessions": 21444, "##ama": 8067, "death": 2331, "##rwood": 20941, "[unused297]": 302, "remembers": 17749, "##\u0283": 29696, "##some": 14045, "allmusic": 10477, "factors": 5876, "bloody": 6703, "[unused774]": 779, "villagers": 11904, "aeronautics": 27459, "adapting": 25357, "alexandria": 10297, "northwestern": 7855, "##bb": 10322, "saves": 13169, "italics": 19408, "presidency": 8798, "carpet": 10135, "##icle": 25128, "martha": 9246, "armory": 24139, "conditions": 3785, "toxicity": 22423, "new": 2047, "eagerly": 17858, "dell": 12418, "projected": 11310, "##pants": 27578, "hugs": 24459, "red": 2417, "foyer": 16683, "abuse": 6905, "forests": 6138, "##ffer": 12494, "##weight": 11179, "##\u057a": 29780, "[unused476]": 481, "##ung": 5575, "hai": 15030, "rehearsal": 17887, "##vies": 25929, "dali": 29095, "isil": 19600, "[unused534]": 539, "succeed": 9510, "unlocked": 14058, "reliable": 10539, "##men": 3549, "galleries": 11726, "eugene": 8207, "scala": 26743, "indus": 27746, "##crow": 24375, "ax": 22260, "wavelength": 19934, "integrate": 17409, "malcolm": 8861, "bbc": 4035, "peering": 16740, "[unused467]": 472, "expresses": 16783, "contamination": 18701, "##chev": 16179, "##vill": 26548, "##gged": 15567, "char": 25869, "[unused805]": 810, "##psis": 18409, "eighteenth": 12965, "cooling": 11520, "##eon": 10242, "##tera": 14621, "cornered": 25878, "##rt": 5339, "martins": 19953, "finch": 16133, "archie": 13255, "##kushima": 24917, "##zziness": 29212, "rams": 13456, "feather": 15550, "debating": 20767, "mouse": 8000, "targeted": 9416, "1702": 26776, "\u0f62": 1434, "##hur": 24572, "crack": 8579, "italian": 3059, "groan": 13001, "##maker": 8571, "##eak": 25508, "shave": 27545, "motionless": 19917, "axial": 26819, "distorted": 19112, "lilith": 25576, "exhibitions": 8596, "behavior": 5248, "[unused737]": 742, "destruction": 6215, "[unused381]": 386, "trunk": 8260, "##bo": 5092, "##nberger": 28825, "palma": 23985, "judd": 20128, "songwriter": 6009, "wendell": 24526, "hardness": 23608, "ants": 16111, "delivering": 12771, "distal": 29333, "seemingly": 9428, "diversion": 20150, "abandoning": 19816, "functioned": 20903, "milk": 6501, "funk": 11962, "##sett": 21678, "##bby": 14075, "##\u211d": 30107, "##ches": 8376, "motions": 15323, "[unused807]": 812, "destroyers": 13242, "illnesses": 24757, "##bt": 19279, "literally": 6719, "josh": 6498, "\u5357": 1785, "owns": 8617, "385": 24429, "seaside": 20276, "herzegovina": 11453, "martyr": 17216, "agency": 4034, "obscured": 23649, "shipyard": 13858, "bombs": 9767, "makes": 3084, "wan": 14071, "noah": 7240, "helix": 25743, "blinds": 28279, "\u6c38": 1896, "undertaking": 18457, "##zd": 26494, "##fera": 27709, "administering": 28965, "##\u0254": 29679, "clancy": 24530, "##holding": 23410, "lips": 2970, "tau": 19982, "\u5206": 1775, "brother": 2567, "measures": 5761, "apostolic": 11815, "increasing": 4852, "ji": 10147, "[unused411]": 416, "economics": 5543, "##kato": 26020, "providers": 11670, "catalogue": 10161, "vineyard": 18621, "\u09b6": 1374, "[unused820]": 825, "interaction": 8290, "west": 2225, "fuss": 28554, "urge": 9075, "qc": 25196, "##\u3059": 30184, "1653": 29309, "[unused501]": 506, "robb": 26211, "performers": 9567, "elections": 3864, "##\u3081": 30206, "##by": 3762, "criticized": 6367, "con": 9530, "crisp": 15594, "##chase": 26300, "chicken": 7975, "issue": 3277, "localized": 22574, "emil": 16243, "\u0679": 1301, "lately": 9906, "kennedy": 5817, "appealing": 16004, "pens": 25636, "##\u22121": 27944, "cores": 25562, "158": 17696, "galway": 14370, "##\u00b4s": 21932, "bandages": 27993, "roles": 4395, "conviction": 10652, "##lis": 6856, "##zog": 28505, "##ater": 24932, "infinitely": 25773, "267": 25491, "##tler": 25091, "chile": 7029, "refit": 27070, "navigable": 28538, "disdain": 25134, "sneered": 28098, "being": 2108, "retirement": 5075, "##ale": 9453, "healthcare": 9871, "bombing": 8647, "##marks": 27373, "##unas": 23904, "scrap": 15121, "meadow": 13244, "somewhat": 5399, "explanation": 7526, "\u06a9": 1304, "terrific": 27547, "grandmaster": 27101, "##oma": 9626, "groups": 2967, "terre": 25170, "##rsten": 19020, "princes": 12000, "\u8a9e": 1950, "1949": 4085, "cod": 19429, "##uron": 21017, "endured": 16753, "##\u6b63": 30414, "joanne": 23459, "taped": 19374, "zu": 16950, "1972": 3285, "baghdad": 13952, "##week": 28075, "illusions": 24883, "nominations": 9930, "7th": 5504, "2": 1016, "loser": 10916, "preparation": 7547, "wore": 5078, "pathogen": 26835, "postseason": 17525, "daniela": 28541, "##taka": 28412, "byzantine": 8734, "1624": 28531, "marquette": 24223, "##ifies": 14144, "##gina": 20876, "buddhism": 11388, "##:": 29627, "kosovo": 11491, "profile": 6337, "##gement": 20511, "dip": 16510, "spiritual": 6259, "trivial": 20610, "school": 2082, "cherokee": 13796, "##race": 22903, "provisional": 10864, "##maid": 28478, "##bola": 24290, "##\u2228": 30130, "irregular": 12052, "lions": 7212, "##proof": 18907, "hurley": 25124, "hospitality": 15961, "waitress": 13877, "garbage": 13044, "themes": 6991, "96": 5986, "cove": 11821, "##\u90e1": 30485, "hague": 14575, "silence": 4223, "cylindrical": 18797, "faust": 24021, "bolivian": 26075, "shutting": 17521, "portico": 23104, "purposes": 5682, "##rdial": 25070, "##ically": 15004, "reflecting": 10842, "##\u2605": 30147, "##tter": 12079, "activities": 3450, "##tries": 21011, "media": 2865, "abbey": 6103, "excellence": 8012, "##[": 29634, "guerre": 24613, "resumed": 7943, "##ics": 6558, "##gart": 27378, "##lete": 25890, "sacrifice": 8688, "##rrick": 24999, "ashley": 9321, "roared": 14242, "exiting": 22371, "##\u30d2": 30245, "##ructured": 26134, "\u0996": 1354, "ss": 7020, "civic": 8388, "bengal": 8191, "sanitary": 25480, "haute": 18535, "madness": 12013, "handling": 8304, "##med": 7583, "##ichi": 11319, "mobilized": 27526, "rounds": 6241, "tissues": 14095, "cottages": 18918, "##urn": 14287, "\u2208": 1596, "bets": 29475, "##alo": 23067, "confronting": 26964, "candidates": 5347, "processors": 18017, "##gled": 11533, "##\u961d": 30496, "central": 2430, "govern": 21208, "[unused773]": 778, "##\u533a": 30308, "yates": 20356, "cycle": 5402, "##vina": 17948, "ava": 10927, "budapest": 10926, "arcade": 10877, "terror": 7404, "sinking": 10186, "appropriately": 23263, "gage": 10012, "blades": 10491, "bolts": 19947, "repetitive": 23563, "elisabeth": 12877, "##rri": 18752, "loyalty": 9721, "##due": 20041, "triangular": 14023, "kellogg": 26129, "wanda": 20848, "sync": 26351, "guinea": 7102, "blah": 27984, "leighton": 26873, "biographer": 17121, "remembering": 10397, "##cans": 26642, "##lang": 25023, "addicted": 23042, "<": 1026, "nearby": 3518, "android": 11924, "stall": 13498, "antique": 14361, "mutations": 14494, "subtly": 28797, "18": 2324, "asbestos": 29191, "goodwill": 22875, "obe": 15578, "orion": 18747, "transforms": 21743, "junctions": 27169, "affirmed": 19768, "concourse": 28571, "##cr": 26775, "latino": 7402, "initiative": 6349, "camden": 13267, "mouthful": 28462, "1920": 4444, "setting": 4292, "flicking": 26259, "[unused670]": 675, "apprentice": 13357, "preparations": 12929, "forever": 5091, "buzzed": 21377, "hoping": 5327, "handcuffs": 28338, "khyber": 28416, "[unused151]": 156, "bathing": 17573, "\u6210": 1854, "instability": 18549, "readily": 12192, "turkmenistan": 25432, "##lley": 25105, "47": 4700, "possesses": 14882, "canadian": 3010, "##t": 2102, "na": 6583, "1752": 24736, "coasts": 20266, "bas": 19021, "fours": 23817, "interfaces": 19706, "##55": 24087, "vishnu": 17647, "shown": 3491, "piedmont": 18873, "kidnap": 22590, "22nd": 13816, "seamen": 28671, "1790": 13393, "60s": 20341, "docks": 15093, "civilizations": 24784, "vidhan": 28590, "##raz": 20409, "coincided": 18616, "[unused308]": 313, "lynx": 22636, "##\u05e6": 29809, "1910s": 28088, "cardiac": 15050, "cheeks": 6029, "hammered": 25756, "##ffi": 26989, "polytechnic": 14466, "commotion": 23960, "spirit": 4382, "seductive": 23182, "reconstruction": 8735, "gain": 5114, "##ios": 10735, "hog": 27589, "ten": 2702, "dorm": 19568, "820": 26667, "hurting": 11878, "##xing": 19612, "rouen": 27030, "where": 2073, "##\u9f8d": 30508, "trembled": 14823, "howard": 4922, "##dp": 18927, "##\u02b7": 29709, "vehicle": 4316, "\u11b7": 1487, "chattanooga": 23351, "redesignated": 11836, "shatter": 27271, "jeanne": 14537, "coats": 15695, "##imus": 19315, "potassium": 18044, "chances": 9592, "lunged": 17755, "##shed": 14740, "##\u20a4": 30100, "##ror": 29165, "leads": 5260, "parrot": 22530, "##wani": 29092, "[unused469]": 474, "federation": 4657, "[unused353]": 358, "handing": 13041, "sequences": 10071, "##anus": 20849, "\u0449": 1204, "##codes": 23237, "pri": 26927, "brethren": 17937, "##kla": 26086, "claws": 10702, "##ulated": 8898, "creator": 8543, "[unused331]": 336, "\u307b": 1676, "##\u099a": 29892, "##cing": 6129, "20": 2322, "counties": 5721, "unleashed": 22416, "clearing": 8430, "jailed": 21278, "security": 3036, "presently": 12825, "continual": 27222, "drum": 6943, "##kiewicz": 28563, "##)": 29620, "faced": 4320, "##\u6708": 30398, "briefing": 27918, "269": 25717, "guardian": 6697, "caesar": 11604, "##uating": 24133, "politely": 16954, "##ors": 5668, "gertrude": 18734, "builder": 12508, "mojo": 28017, "louvre": 25110, "acquisition": 7654, "amc": 21962, "tarzan": 24566, "##\u2212": 22543, "analyst": 12941, "harmon": 25546, "limit": 5787, "harper": 8500, "acquisitions": 19530, "[unused533]": 538, "weaver": 14077, "chopped": 24881, "mausoleum": 19049, "swelled": 21851, "angrily": 14136, "stacks": 20829, "scientists": 6529, "loaned": 13190, "toys": 10899, "segments": 9214, "jorge": 10853, "valves": 17355, "percent": 3867, "sultan": 7544, "freeman": 11462, "lectures": 8921, "yunnan": 21607, "farm": 3888, "shattering": 21797, "superiors": 22983, "##\u045b": 29764, "pitched": 8219, "pepsi": 27237, "diamond": 6323, "hallway": 6797, "campbell": 6063, "shirts": 11344, "rebirth": 22785, "jenks": 15119, "##\u2663": 30151, "##c": 2278, "celebration": 7401, "facto": 13743, "blond": 8855, "##gnan": 28207, "ana": 9617, "drunk": 7144, "berger": 16758, "embark": 28866, "remarkable": 9487, "dedicated": 4056, "*": 1008, "\u0964": 1344, "seasons": 3692, "identities": 15702, "operator": 6872, "\u516c": 1772, "enfield": 25821, "iconic": 14430, "hazardous": 17760, "[unused479]": 484, "##\u03b7\u03c2": 29155, "sniffing": 27646, "capita": 8353, "socially": 14286, "bison": 22285, "sexes": 21024, "\u77f3": 1922, "proponent": 22488, "reveal": 7487, "carousel": 27628, "mystical": 17529, "##\u30fb": 30264, "\u1d9c": 1511, "regulators": 25644, "foreigners": 15040, "##ance": 6651, "##ac": 6305, "[unused342]": 347, "participant": 13180, "searches": 17193, "##oint": 25785, "##hc": 16257, "confidential": 18777, "[unused379]": 384, "logical": 11177, "obvious": 5793, "insurgents": 20541, "##lux": 25148, "rocky": 6857, "leak": 17271, "##ti": 3775, "dunne": 26553, "lance": 9993, "\u10dc": 1449, "duration": 9367, "pest": 20739, "danube": 16212, "rites": 17105, "ruining": 27853, "puppets": 26101, "souls": 9293, "calculations": 16268, "mcleod": 25363, "overshadowed": 28604, "rear": 4373, "\u8eca": 1954, "##ocene": 25793, "##wire": 20357, "categories": 7236, "options": 7047, "\u03b8": 1162, "numerous": 3365, "fellowships": 27298, "worms": 16253, "leningrad": 15930, "supports": 6753, "undergone": 17215, "ye": 6300, "wien": 22782, "affiliates": 18460, "navigator": 20532, "col": 8902, "[unused813]": 818, "[unused75]": 76, "hang": 6865, "##ms": 5244, "regiments": 10435, "assassin": 12025, "phoebe": 18188, "nathan": 7150, "historically": 7145, "ivory": 11554, "1713": 27016, "258": 24398, "housed": 7431, "[unused191]": 196, "[unused397]": 402, "karlsruhe": 26660, "cornell": 10921, "[unused786]": 791, "##\u0e1e": 29950, "flinders": 29120, "reflect": 8339, "mediterranean": 7095, "rash": 23438, "zones": 10019, "##ct": 6593, "prospect": 9824, "foil": 17910, "bit": 2978, "236": 23593, "water": 2300, "[unused450]": 455, "percussion": 6333, "##ckman": 24080, "congregations": 16850, "rutherford": 18472, "path": 4130, "boroughs": 21413, "##mming": 25057, "##vis": 11365, "authored": 8786, "##\u0937": 29873, "smash": 15132, "weeping": 19750, "jo": 8183, "mistakes": 12051, "renovated": 10601, "bases": 7888, "toilets": 21674, "ported": 27650, "##ways": 14035, "deeper": 6748, "pulled": 2766, "greaves": 27808, "portraying": 17274, "\u1d3a": 1494, "lincoln": 5367, "outcome": 9560, "reader": 8068, "mc": 11338, "##tana": 20496, "sergey": 22703, "wood": 3536, "streetcar": 21420, "topical": 25665, "record": 2501, "snuggled": 26867, "siam": 25583, "southern": 2670, "departed": 7745, "clap": 28618, "remains": 3464, "pinyin": 9973, "commits": 27791, "anthology": 9637, "scientology": 23845, "foreword": 23059, "##sil": 27572, "tragedy": 10576, "chill": 10720, "\u56d7": 1797, "glint": 25263, "##ssing": 18965, "disciplines": 12736, "##mura": 16069, "happens": 6433, "hms": 7220, "##bach": 7693, "involve": 9125, "canucks": 26177, "lb": 6053, "vibrations": 22755, "visitation": 28877, "northumberland": 16205, "unnecessary": 14203, "[unused73]": 74, "excitedly": 23885, "##\u02b3": 29708, "digitally": 18397, "clashed": 22600, "sacked": 14159, "claremont": 23716, "borrow": 17781, "maximus": 21692, "arrondissement": 20522, "##hner": 28989, "correction": 18140, "terry": 6609, "separate": 3584, "##70": 19841, "kazan": 22001, "##thic": 23048, "##\u4fdd": 30292, "ah": 6289, "bye": 9061, "lennon": 14294, "##uba": 19761, "coefficients": 21374, "bella": 12101, "storage": 5527, "##\u03c7": 29737, "pops": 16949, "##\u79c0": 30454, "hannibal": 24181, "shankar": 17429, "somerville": 27209, "wurttemberg": 16346, "##mum": 27147, "touch": 3543, "munchen": 25802, "[unused942]": 947, "iain": 24486, "23": 2603, "voiced": 6126, "graduation": 7665, "do": 2079, "bleed": 19501, "unanimous": 13604, "island": 2479, "adobe": 18106, "[unused220]": 225, "##unced": 22392, "##boot": 27927, "\u30e1": 1726, "atlantis": 16637, "ramp": 13276, "##ground": 16365, "twists": 21438, "hamlets": 21631, "##ticus": 29587, "mer": 21442, "##cek": 25368, "albanian": 9408, "embassy": 8408, "guild": 9054, "audit": 15727, "##nian": 11148, "mongol": 17450, "marina": 9985, "1661": 24046, "jens": 25093, "blinked": 7948, "##\u2092": 30091, "rim": 11418, "musician": 5455, "##hli": 27766, "tile": 14090, "endelle": 29581, "bog": 22132, "##lands": 8653, "[unused412]": 417, "releases": 7085, "shipping": 7829, "kendall": 14509, "betrayal": 14583, "##kur": 18569, "pledged": 16970, "violin": 6710, "temperance": 23372, "##light": 7138, "##\u0ba4": 29921, "erroneously": 29411, "silk": 6953, "bautista": 27845, "##lind": 27164, "keen": 10326, "cluster": 9324, "##ral": 7941, "motorcycles": 18580, "repertory": 21099, "sarcastic": 22473, "[unused824]": 829, "alfredo": 19423, "##ows": 15568, "pie": 11345, "company": 2194, "makeshift": 19368, "##hunter": 25629, "parental": 18643, "tournaments": 8504, "ni": 9152, "tighter": 12347, "cop": 8872, "##tton": 15474, "dragoons": 28069, "sleepy": 17056, "\u5e78": 1841, "volunteers": 7314, "joshua": 9122, "gap": 6578, "##\u1d50": 30038, "xander": 29019, "tonnes": 11000, "palace": 4186, "tre": 29461, "arising": 17707, "laughed": 4191, "extremely": 5186, "aaa": 13360, "celtic": 8730, "phone": 3042, "entries": 10445, "inmate": 24467, "tay": 28117, "82": 6445, "possessed": 8679, "##ship": 9650, "52nd": 26898, "barre": 23189, "##park": 14432, "superhero": 16251, "israel": 3956, "##lc": 15472, "negotiated": 13630, "procedural": 24508, "\u093e": 1340, "induction": 15946, "blockade": 15823, "##gg": 13871, "straighten": 28568, "70": 3963, "lipstick": 22359, "irs": 25760, "psychologists": 25428, "\u6211": 1855, "environmental": 4483, "[unused184]": 189, "apparatus": 14709, "subway": 10798, "os": 9808, "\u0575": 1230, "loves": 7459, "organizers": 18829, "foster": 6469, "stomach": 4308, "protein": 5250, "##\u307b": 30202, "refer": 6523, "eleven": 5408, "butch": 17520, "looking": 2559, "##twined": 21077, "##ped": 5669, "longevity": 26906, "watch": 3422, "salt": 5474, "1839": 10011, "these": 2122, "vip": 21722, "status": 3570, "##kala": 26907, "flights": 7599, "bradshaw": 23762, "justice": 3425, "gui": 26458, "##rasia": 27839, "onboard": 27120, "sanity": 20039, "hal": 11085, "chronic": 11888, "content": 4180, "rockets": 12496, "este": 28517, "reminded": 6966, "vegetarian": 23566, "nottingham": 11331, "wishes": 8996, "extracts": 27059, "adler": 17969, "ivy": 7768, "raiding": 23530, "[unused354]": 359, "messy": 18307, "richards": 9712, "differential": 11658, "##cu": 10841, "playground": 14705, "draught": 25349, "libel": 26201, "rebuilt": 7183, "epidemic": 16311, "ashton": 13772, "grant": 3946, "inversion": 28527, "[unused732]": 737, "##chemical": 15869, "fox": 4419, "incorporation": 16935, "##stead": 25647, "\u30af": 1702, "headlights": 18167, "bits": 9017, "clubs": 4184, "brad": 8226, "prevailed": 19914, "anne": 4776, "favorite": 5440, "ecumenical": 23540, "playoffs": 7555, "specialization": 28031, "##haling": 23896, "sea": 2712, "##rera": 24068, "ollie": 25208, "[unused461]": 466, "\u10d5": 1443, "carroll": 10767, "luciano": 24512, "ceasefire": 26277, "inspired": 4427, "##cap": 17695, "another": 2178, "scrapped": 14553, "##cken": 19766, "here": 2182, "called": 2170, "##ter": 3334, "##plate": 15725, "congregation": 7769, "saber": 25653, "overlooked": 17092, "170": 10894, "massachusetts": 4404, "caused": 3303, "sanjay": 29590, "ancestors": 10748, "offer": 3749, "vfl": 13480, "vanuatu": 27625, "jagger": 25827, "rediscovered": 26733, "flavour": 28126, "grandfather": 5615, "atmospheric": 12483, "rigorous": 20001, "convincing": 13359, "plants": 4264, "\u0635": 1284, "##we": 8545, "sulfur": 17864, "2000": 2456, "foreigner": 29524, "11th": 6252, "increasingly": 6233, "cradled": 23774, "edges": 7926, "clergy": 11646, "montenegro": 13018, "##utnant": 24620, "cheerfully": 27403, "maldives": 25059, "1086": 28196, "##inen": 21820, "wines": 14746, "sans": 20344, "further": 2582, "reserve": 3914, "##iously": 19426, "scaling": 25169, "faux": 29276, "fredrik": 25454, "mate": 6775, "manor": 6952, "for": 2005, "##\u5dde": 30362, "flags": 9245, "constituencies": 13315, "##omi": 20936, "##\u028a": 29698, "phosphorus": 25473, "proportion": 10817, "##case": 18382, "mirrors": 13536, "verve": 29230, "##fed": 25031, "aired": 4836, "##neo": 23585, "internally": 16058, "##phus": 25255, "##grants": 27444, "296": 27200, "collective": 7268, "affair": 6771, "ethanol": 22886, "\u03b4": 1158, "picture": 3861, "flexible": 12379, "twenty": 3174, "cdc": 26629, "dialects": 11976, "##cia": 7405, "walden": 24834, "dario": 26800, "echo": 9052, "punta": 27377, "facts": 8866, "regency": 15647, "##\u00be": 29665, "underground": 5230, "jericho": 17309, "disposal": 13148, "excused": 28512, "##\u6728": 30401, "aggressively": 24663, "##kko": 22426, "transparency": 16987, "shower": 6457, "[unused859]": 864, "chores": 27091, "[unused380]": 385, "adorned": 19189, "bc": 4647, "135": 11502, "[unused280]": 285, "radiating": 23229, "productions": 5453, "karin": 24537, "robes": 17925, "theorists": 28442, "##zza": 20715, "##\u306b": 30194, "telecast": 28803, "keystone": 22271, "rattle": 23114, "assassinate": 25683, "beck": 10272, "##zi": 5831, "gladys": 22386, "##\u0bbe": 29931, "distinctions": 25995, "nottinghamshire": 20126, "ultrasound": 27312, "idea": 2801, "##pins": 27915, "1858": 8517, "nacional": 10718, "macro": 26632, "palermo": 18705, "nation": 3842, "##uc": 14194, "mack": 11349, "elsie": 24603, "poses": 22382, "pub": 9047, "##nging": 22373, "artist": 3063, "derive": 18547, "##yce": 29297, "non": 2512, "pitt": 15091, "\u65b9": 1863, "producer": 3135, "##ica": 5555, "nationalists": 17934, "viable": 14874, "\u5dff": 1837, "kent": 5982, "\u092f": 1332, "tamara": 21772, "watching": 3666, "[unused710]": 715, "succession": 8338, "\u30c1": 1710, "replaced": 2999, "revenge": 7195, "broughton": 29187, "turbulent": 22609, "boon": 23264, "jointly": 10776, "monsters": 9219, "cocoa": 22940, "gabon": 23129, "maori": 12600, "booster": 23715, "hidalgo": 24715, "stiff": 10551, "dedication": 12276, "starring": 4626, "##aves": 21055, "listened": 7791, "##mic": 7712, "##dock": 14647, "##ista": 11921, "[unused890]": 895, "valley": 3028, "##board": 6277, "fantasia": 29203, "rankings": 10385, "interfered": 28976, "\u1d2e": 1491, "\u201d": 1524, "bobbed": 29579, "[unused408]": 413, "commerce": 6236, "weekly": 4882, "1634": 28502, "possible": 2825, "owning": 19273, "bragg": 23678, "[unused858]": 863, "##mia": 10092, "bayer": 26367, "genre": 6907, "##\u09bf": 29915, "hourly": 21462, "negative": 4997, "##elial": 24587, "elements": 3787, "acting": 3772, "visited": 4716, "mortgage": 14344, "flared": 14937, "ribbon": 10557, "\u3080": 1679, "sabre": 22002, "toy": 9121, "##ho": 6806, "eddy": 16645, "difficult": 3697, "[unused311]": 316, "airs": 14369, "most": 2087, "songwriters": 20602, "robertson": 9923, "crazy": 4689, "actively": 8851, "##tructing": 26310, "##bolt": 22803, "enormous": 8216, "managed": 3266, "relied": 13538, "##at": 4017, "jewish": 3644, "examine": 11628, "[unused241]": 246, "##rrell": 14069, "challenge": 4119, "textbook": 16432, "[unused343]": 348, "shale": 18488, "intuitive": 29202, "unnatural": 21242, "##ann": 11639, "sought": 4912, "##\u3063": 30189, "wolf": 4702, "moon": 4231, "still": 2145, "alexandra": 10481, "mt": 11047, "##xy": 18037, "##\u0906": 29848, "defense": 3639, "##imate": 21499, "##horn": 9769, "sidekick": 29240, "superliga": 25922, "tons": 6197, "carmine": 18791, "customary": 16120, "wasted": 13842, "pulse": 8187, "derby": 7350, "##titles": 27430, "projective": 27473, "jocelyn": 23786, "evaluated": 16330, "stationed": 8895, "campaigned": 16196, "##llet": 22592, "1732": 27582, "purple": 6379, "claimed": 3555, "##\u304d": 30178, "und": 6151, "33": 3943, "apparently": 4593, "\u026a": 1119, "870": 28864, "adherents": 25712, "dinah": 26562, "efficacy": 21150, "fertility": 17376, "lexie": 24123, "beating": 6012, "1748": 24445, "[unused902]": 907, "mitch": 11857, "trends": 12878, "ali": 4862, "color": 3609, "purchases": 17402, "##\u03be": 29729, "theater": 4258, "\u83ef": 1942, "strained": 12250, "executing": 23448, "rivera": 14043, "mcintosh": 29052, "##hesion": 21471, "##nto": 13663, "intimidating": 24439, "coverage": 6325, "logged": 26618, "410": 19151, "comets": 27138, "darts": 17493, "melody": 8531, "154": 16666, "tu": 10722, "[unused539]": 544, "framed": 10366, "accounted": 14729, "##boat": 11975, "wastewater": 28269, "clean": 4550, "susanna": 26681, "monitoring": 8822, "flemish": 15427, "sudbury": 26487, "owners": 5608, "memorandum": 20336, "resigning": 24642, "succeeds": 21645, "speedway": 10688, "formats": 11630, "lucan": 20764, "\u0250": 1109, "##ded": 5732, "##\u2016": 30054, "##b": 2497, "[unused756]": 761, "bulge": 23708, "fatty": 19101, "\u092e": 1331, "ecole": 12431, "##vr": 19716, "##itor": 15660, "improves": 24840, "blockbuster": 27858, "galloway": 22372, "price": 3976, "headlines": 19377, "divorce": 8179, "[unused967]": 972, "kota": 23856, "strike": 4894, "blush": 16688, "thigh": 10120, "[unused383]": 388, "lingering": 15304, "1690": 24765, "revive": 17995, "##\u2030": 30065, "silicon": 13773, "uncanny": 28953, "annual": 3296, "fc": 4429, "anders": 15387, "powers": 4204, "complement": 13711, "create": 3443, "##lak": 23451, "1977": 3355, "##ham": 3511, "noticeably": 25327, "marquis": 13410, "gerhard": 21037, "stepfather": 21481, "launching": 12106, "thierry": 26413, "digit": 15340, "honestly": 9826, "atletico": 16132, "stories": 3441, "with": 2007, "gills": 29468, "bays": 13933, "##nies": 15580, "lights": 4597, "##vati": 20203, "extra": 4469, "1886": 6929, "torpedoes": 18544, "audi": 20075, "guantanamo": 23094, "sweetie": 22872, "[unused658]": 663, "confronts": 17628, "haul": 14655, "##\u77f3": 30448, "births": 18250, "southland": 29121, "temperate": 16868, "sect": 17831, "anastasia": 19447, "##saurus": 22244, "indeed": 5262, "adopt": 11092, "sling": 27076, "chairs": 8397, "racetrack": 28435, "\u05d6": 1247, "incline": 27461, "august": 2257, "mats": 22281, "violins": 25877, "zeke": 18270, "claims": 4447, "##tension": 29048, "##rized": 18425, "wheeled": 17320, "##ties": 7368, "advisors": 18934, "harry": 4302, "flickering": 20046, "\u3086": 1683, "heartland": 27399, "rovers": 9819, "montenegrin": 24099, "##rem": 28578, "blog": 9927, "villiers": 25333, "disciples": 17102, "connectivity": 20831, "crosses": 7821, "##\u2502": 30143, "1890": 6193, "waller": 23550, "piers": 16067, "light": 2422, "flag": 5210, "copeland": 27303, "appearing": 6037, "287": 23090, "dawned": 27702, "totally": 6135, "278": 24709, "baptist": 7550, "pagoda": 27387, "armchair": 29372, "quartz": 20971, "##pping": 14853, "eel": 24315, "\u5fc3": 1849, "zoe": 11199, "[unused7]": 8, "arguably": 15835, "corona": 21887, "sniffed": 18013, "rare": 4678, "##\u0996": 29890, "aryan": 26030, "##\u2093": 30092, "residing": 7154, "bsc": 23533, "gets": 4152, "waistband": 27553, "[unused634]": 639, "\u0bc8": 1399, "johnston": 10773, "##hui": 20552, "audience": 4378, "juliet": 13707, "challenges": 7860, "##gut": 27920, "constrained": 27570, "maximize": 25845, "chao": 22455, "\u00b9": 1088, "billion": 4551, "allied": 6035, "\u0432": 1182, "cousin": 5542, "##idad": 27893, "kyushu": 25885, "pulmonary": 21908, "overlap": 17702, "92": 6227, "\u30c6": 1713, "guidelines": 11594, "##kh": 10023, "sl": 22889, "generic": 12391, "allison": 10786, "surrey": 9948, "auburn": 12704, "padded": 20633, "bran": 24905, "bowed": 11489, "[unused961]": 966, "harden": 28751, "[unused850]": 855, "gained": 4227, "comparing": 13599, "kiran": 22403, "archive": 8756, "incorporate": 13265, "[unused413]": 418, "populations": 7080, "radiation": 8249, "northern": 2642, "\u25a0": 1617, "assembled": 9240, "##\u2044\u2084": 27392, "probation": 19703, "mclaughlin": 23720, "thud": 20605, "aft": 16638, "slicing": 26514, "outdoors": 19350, "containment": 29174, "[unused993]": 998, "toronto": 4361, "minnie": 26188, "##west": 19650, "dual": 7037, "23rd": 13928, "##nel": 11877, "lucius": 15639, "ceramics": 17314, "towed": 18948, "felipe": 17095, "dress": 4377, "kin": 12631, "salvation": 12611, "dreams": 5544, "##bria": 21556, "mapped": 17715, "\u5834": 1806, "##\u702c": 30431, "action": 2895, "##ders": 13375, "psychological": 8317, "sugar": 5699, "upright": 10051, "tirana": 24631, "\u25cf": 1619, "dazzling": 28190, "tex": 16060, "chilling": 27017, "lastly": 22267, "peek": 19043, "[unused444]": 449, "fighter": 4959, "pays": 12778, "gems": 20296, "benches": 19571, "piccolo": 29368, "##stle": 22516, "inward": 20546, "slovenian": 16583, "valuable": 7070, "officers": 3738, "jj": 29017, "insistence": 20616, "##\u0f0b": 29960, "drought": 14734, "[unused488]": 493, "sociology": 11507, "millennium": 10144, "rebel": 8443, "laboratories": 12030, "montevideo": 22460, "bangladesh": 7269, "sterling": 10933, "bracing": 25919, "chewed": 18362, "hurry": 9241, "illinois": 4307, "##hart": 10686, "vacant": 10030, "cameron": 7232, "##cit": 26243, "appetite": 18923, "##dic": 14808, "fearing": 14892, "zack": 13658, "subterranean": 28811, "##stock": 14758, "devon": 7614, "mora": 26821, "israeli": 5611, "\u5bbf": 1826, "[unused2]": 3, "tier": 7563, "\u0458": 1214, "derivation": 29280, "harvested": 22629, "giles": 13287, "midlands": 13256, "##\u209a": 30097, "write": 4339, "[unused680]": 685, "bore": 8501, "zoning": 27462, "gloucester": 13370, "##rew": 15603, "dignity": 13372, "renaming": 24944, "\u30b9": 1707, "##ller": 10820, "survive": 5788, "##tta": 5946, "\u03b5": 1159, "guessing": 16986, "ascended": 19644, "bree": 21986, "urgent": 13661, "shrink": 22802, "soyuz": 29412, "experimentation": 21470, "duly": 25073, "burden": 10859, "##plication": 21557, "capital": 3007, "seated": 8901, "leary": 22986, "him": 2032, "[unused645]": 650, "##v": 2615, "fray": 25975, "suspicions": 17817, "fountain": 9545, "gen": 8991, "too": 2205, "hallmark": 25812, "##gins": 16529, "dem": 17183, "monsoon": 19183, "[unused182]": 187, "decided": 2787, "estimate": 10197, "##optera": 25324, "heaven": 6014, "innovation": 8144, "cultural": 3451, "lowe": 14086, "assimilation": 27574, "##dek": 24463, "##atic": 12070, "\u306b": 1668, "demolished": 7002, "alleged": 6884, "quake": 27785, "gateway": 11909, "##worth": 5172, "switch": 6942, "[unused205]": 210, "zero": 5717, "fantasies": 21233, "organisms": 11767, "basilica": 13546, "\u8fb6": 1956, "confines": 25722, "##res": 6072, "archery": 21383, "additional": 3176, "lough": 29504, "debts": 13930, "24th": 13386, "cyrus": 16123, "academics": 15032, "toast": 15174, "##ilia": 27861, "joao": 16304, "precedent": 20056, "fools": 18656, "##ika": 7556, "greens": 15505, "\u9673": 1972, "noir": 15587, "shrug": 13409, "chaplin": 23331, "unstable": 14480, "cruelty": 18186, "myles": 27056, "portion": 4664, "urges": 23876, "[unused135]": 140, "defeats": 14222, "villains": 16219, "##care": 16302, "writings": 7896, "blankets": 15019, "1640": 21533, "ganga": 28646, "dread": 14436, "reinforcement": 23895, "delays": 14350, "[unused726]": 731, "apartheid": 17862, "tuesday": 9857, "tribal": 8807, "job": 3105, "champagne": 12327, "artisans": 26818, "cavity": 17790, "recruit": 13024, "sedan": 15134, "intriguing": 23824, "opening": 3098, "lanterns": 26078, "aerial": 9682, "publication": 4772, "luca": 15604, "quietly": 5168, "planet": 4774, "##wood": 3702, "##uded": 13936, "m2": 25525, "\u6226": 1856, "gabe": 12900, "controlled": 4758, "moisture": 14098, "derivative": 13819, "##reate": 29313, "##ev": 6777, "[unused24]": 25, "folder": 19622, "cottage": 9151, "toward": 2646, "offered": 3253, "[unused313]": 318, "swan": 10677, "\u5e1d": 1838, "irritation": 17373, "elaine": 15263, "cessna": 27664, "##dale": 5634, "##cco": 21408, "[unused812]": 817, "slater": 17916, "hazel": 14015, "huh": 9616, "betsy": 22396, "##holder": 14528, "breton": 16659, "party": 2283, "##\u4e16": 30271, "branded": 11180, "lausanne": 22256, "80s": 16002, "invalid": 19528, "itunes": 11943, "fond": 13545, "[unused155]": 160, "purchase": 5309, "ein": 16417, "[unused744]": 749, "hobby": 17792, "##dle": 10362, "familiar": 5220, "##\u6d77": 30428, "comprises": 8681, "viking": 12886, "troops": 3629, "##\u2010": 30048, "##phs": 18757, "drag": 8011, "laundering": 28289, "sigh": 6682, "corps": 3650, "sits": 7719, "##sonic": 18585, "visibly": 19397, "[unused627]": 632, "requires": 5942, "whatever": 3649, "mono": 18847, "##rdon": 28176, "##dberg": 25190, "##trust": 24669, "meiji": 23214, "hissed": 11402, "[unused393]": 398, "ken": 6358, "##est": 4355, "##date": 13701, "exercises": 11110, "archaeology": 12009, "theresa": 14781, "##sities": 24279, "##\u30a6": 30222, "jerseys": 28772, "forrest": 16319, "bread": 7852, "apr": 19804, "cpu": 17368, "centrally": 25497, "counter": 4675, "##vers": 14028, "owes": 24381, "prank": 26418, "although": 2348, "weakened": 11855, "shaved": 20665, "kunst": 28145, "threads": 16457, "##\u671d": 30400, "chiefs": 9058, "attendant": 16742, "stout": 18890, "budge": 24981, "demoted": 25692, "destination": 7688, "dauphin": 29102, "almond": 26011, "upper": 3356, "novo": 24576, "said": 2056, "enters": 8039, "raped": 15504, "slab": 17584, "##stra\u00dfe": 24967, "vedic": 25824, "johann": 8968, "zoology": 22405, "elias": 14579, "\u2264": 1608, "##\u5317": 30307, "pedestrian": 14662, "istanbul": 9960, "crambidae": 21585, "passion": 6896, "##atics": 17592, "\u0127": 1103, "##ooped": 20671, "mocking": 19545, "unfolded": 23959, "185": 15376, "\u30e7": 1730, "wexford": 23121, "apostles": 19178, "##ack": 8684, "##\u20b9": 30104, "sunk": 10417, "auckland": 8666, "odor": 19255, "\u2248": 1606, "jc": 29175, "eye": 3239, "duffy": 17971, "jace": 10352, "abyss": 22159, "boom": 8797, "ordination": 18129, "christopher": 5696, "##ani": 7088, "para": 11498, "celtics": 23279, "[unused753]": 758, "##stituting": 21532, "##lder": 16502, "airport": 3199, "##\u4f50": 30290, "charity": 5952, "[unused107]": 112, "##\u0633": 29824, "fairy": 8867, "1883": 7257, "acheron": 21427, "##jected": 24455, "full": 2440, "##\u0628": 29816, "##ifiers": 28295, "##cript": 23235, "##old": 11614, "cot": 26046, "straightened": 11168, "frequented": 24832, "calhoun": 22982, "practically": 8134, "aachen": 29093, "granted": 4379, "##smo": 25855, "petitioned": 22527, "##sef": 20106, "pro": 4013, "portfolio": 11103, "312": 21036, "dunbar": 23034, "urgency": 19353, "##osta": 28696, "chair": 3242, "recounted": 22906, "latitude": 15250, "counterparts": 14562, "293": 26953, "irina": 25404, "##hesis": 24124, "intact": 10109, "##fahan": 28975, "##tracted": 24301, "[unused778]": 783, "chrysler": 17714, "swirled": 19171, "pillar": 14809, "cabinet": 5239, "rift": 16931, "ambulance": 10771, "ecosystems": 20440, "ostensibly": 23734, "quebec": 5447, "forks": 19896, "rm": 28549, "\u2077": 1541, "creole": 21414, "fumble": 19576, "mein": 24182, "atom": 13787, "hawkins": 13835, "gifford": 29360, "formed": 2719, "disappointing": 15640, "[unused523]": 528, "1000": 6694, "##xin": 20303, "debra": 28762, "emma": 5616, "##hold": 12640, "194": 19955, "phased": 21718, "hastily": 15789, "thing": 2518, "southbound": 19751, "serie": 8668, "bhp": 22245, "\u0631": 1280, "select": 7276, "mcc": 23680, "ore": 10848, "rama": 14115, "serial": 7642, "stirling": 15597, "hua": 23064, "mustang": 18851, "70s": 17549, "jeans": 6312, "whisper": 7204, "capitalist": 19640, "seminole": 28909, "chateau": 11874, "##yp": 22571, "frustration": 9135, "injustice": 21321, "kemp": 20441, "yacht": 12187, "sympathy": 11883, "hypothesis": 10744, "foolish": 13219, "\u4e2d": 1746, "border": 3675, "origin": 4761, "energetic": 18114, "##nostic": 28199, "hailey": 21664, "breeds": 15910, "lover": 7089, "##cine": 16567, "prostate": 25086, "heated": 9685, "\u063a": 1289, "amman": 25703, "##see": 19763, "rue": 13413, "##till": 28345, "ascension": 18071, "##ago": 23692, "blacksmith": 20987, "##abe": 16336, "##lett": 20897, "bombings": 20109, "##42": 20958, "ak": 17712, "moi": 25175, "hector": 10590, "\u05ea": 1267, "##ils": 12146, "sermons": 20855, "plurality": 29018, "##\u2206": 30122, "fast": 3435, "\u09ae": 1370, "[unused799]": 804, "##\u0562": 29767, "[unused930]": 935, "heresy": 28354, "\u5f8c": 1846, "leases": 29597, "\u0435": 1185, "[unused222]": 227, "trend": 9874, "##ney": 5420, "sustaining": 22663, "charter": 6111, "gifted": 12785, "clears": 28837, "axes": 19589, "##eter": 15141, "botany": 17018, "accusations": 13519, "197": 19975, "storm": 4040, "##tel": 9834, "fatima": 27596, "##quitable": 28298, "measurements": 11702, "[unused620]": 625, "amelie": 25285, "##mbling": 29256, "##liga": 14715, "substantially": 12381, "organising": 21317, "dusseldorf": 18160, "offence": 15226, "spicy": 25482, "fishery": 22880, "42": 4413, "kidnapping": 15071, "styx": 21856, "rejoin": 25261, "cunning": 23626, "intentionally": 15734, "any": 2151, "striking": 8478, "climbed": 6589, "overhaul": 18181, "subject": 3395, "trier": 25487, "indo": 11424, "trajectory": 22793, "line": 2240, "##cko": 19665, "lafayette": 14425, "sedimentary": 25503, "wherein": 16726, "stereotypes": 22807, "scenarios": 16820, "simpsons": 19047, "seton": 28796, "coiled": 24599, "##vres": 24790, "\u057d": 1234, "##piece": 11198, "abdominal": 21419, "fright": 25966, "thou": 15223, "grind": 23088, "divinity": 16968, "overwhelming": 10827, "megan": 12756, "mussolini": 22554, "trumpeter": 28220, "243": 22884, "senegal": 16028, "\u208a": 1557, "\u10d4": 1442, "accordance": 10388, "##\u091f": 29856, "fis": 27424, "##orra": 24285, "kyrgyzstan": 23209, "winnie": 27125, "##lum": 12942, "##pha": 21890, "yearbook": 24803, "cylinder": 7956, "indefinitely": 20733, "appears": 3544, "training": 2731, "253": 23254, "jang": 23769, "stays": 12237, "##ka": 2912, "##zard": 26154, "membrane": 10804, "simple": 3722, "crimson": 11466, "##qui": 15549, "slices": 25609, "secure": 5851, "[unused798]": 803, "curl": 15390, "contiguous": 25177, "##chua": 26200, "client": 7396, "historic": 3181, "mustache": 28786, "consultancy": 24853, "gwen": 11697, "##rnik": 26437, "##hmi": 26837, "nationals": 10342, "provoke": 27895, "370": 16444, "niall": 21889, "huddled": 20258, "bulldogs": 15120, "tickets": 9735, "theoretical": 9373, "mayfair": 28387, "azerbaijan": 8365, "sufi": 21845, "[unused920]": 925, "melodic": 17187, "working": 2551, "proton": 20843, "portsmouth": 10913, "messengers": 28938, "specimens": 9908, "cover": 3104, "leaking": 24325, "[unused673]": 678, "##80": 17914, "absolutely": 7078, "\u53f8": 1791, "logistics": 12708, "flash": 5956, "manila": 9011, "brant": 29182, "item": 8875, "pinto": 25066, "assumptions": 17568, "[unused882]": 887, "follow": 3582, "mecklenburg": 22007, "27th": 15045, "rabbit": 10442, "marlins": 27055, "surrendered": 10795, "279": 25745, "wooded": 17172, "had": 2018, "counts": 9294, "wolff": 23498, "educator": 11490, "\u5bfa": 1827, "##her": 5886, "crops": 8765, "defender": 8291, "discomfort": 17964, "satire": 18312, "bloomberg": 22950, "appendix": 22524, "tag": 6415, "substance": 9415, "##uez": 29488, "##rani": 21578, "plays": 3248, "fails": 11896, "temple": 3379, "[unused760]": 765, "##hit": 16584, "strikes": 9326, "international": 2248, "enrollment": 10316, "##onate": 21149, "sung": 7042, "benedictine": 21139, "sichuan": 20980, "\u0e23": 1417, "regulation": 7816, "##vance": 21789, "##4": 2549, "bazaar": 22774, "mascot": 13314, "gravity": 8992, "land": 2455, "\u1d47": 1497, "henley": 20768, "[unused503]": 508, "##vian": 18073, "tito": 20712, "prussia": 10724, "anomaly": 28685, "pep": 27233, "##vert": 16874, "musique": 25784, "alicia": 15935, "warnings": 16234, "cabaret": 19685, "survey": 5002, "mother": 2388, "##iente": 25099, "vacated": 15348, "barack": 13857, "taller": 12283, "rehearsals": 24760, "lewis": 4572, "coupling": 19780, "##pts": 22798, "granville": 24926, "celebrates": 21566, "##hs": 7898, "\u5c07": 1828, "curiously": 16484, "nineteenth": 9137, "\u3081": 1680, "misery": 14624, "##ulate": 9869, "whipped": 12428, "##keepers": 24764, "readers": 8141, "hacker": 23307, "##yon": 14001, "cowan": 25752, "liar": 16374, "graphic": 8425, "announcer": 14073, "trapped": 7567, "dempsey": 28165, "affects": 13531, "assam": 15181, "1818": 12094, "tanner": 12780, "augusto": 29085, "appellate": 23240, "steam": 5492, "manitoba": 10512, "compiled": 9227, "minimal": 10124, "##bai": 26068, "thorn": 16337, "##\u4e8b": 30277, "privatization": 23966, "##yse": 23274, "planes": 9738, "##son": 3385, "cafe": 7668, "analogy": 23323, "##our": 8162, "dangerous": 4795, "\uff0d": 1990, "geological": 9843, "march": 2233, "##bular": 28808, "##fb": 26337, "broadcasts": 8960, "mama": 9588, "echoing": 17142, "timor": 19746, "requesting": 17942, "##\u06d2": 29846, "power": 2373, "sadler": 29012, "aero": 18440, "stale": 26729, "lawful": 26410, "grades": 7022, "##cked": 18141, "\u2019": 1521, "culture": 3226, "##itate": 17570, "kirby": 15129, "lakes": 6597, "suites": 19796, "horror": 5469, "imperative": 23934, "##\u028c": 29700, "creative": 5541, "##quet": 12647, "##\u03b1": 14608, "\u2071": 1537, "boundary": 6192, "landslide": 20148, "concacaf": 22169, "privilege": 14293, "dj": 6520, "biography": 8308, "nc": 13316, "mimi": 20705, "daniel": 3817, "\u05dd": 1254, "##mour": 20360, "foxes": 24623, "wrenched": 26971, "reliefs": 27670, "bathrooms": 28942, "network": 2897, "##slow": 26338, "outlying": 25376, "##nt": 3372, "##gical": 26715, "##\u6c38": 30422, "rumors": 11256, "[unused934]": 939, "math": 8785, "[unused451]": 456, "sandals": 24617, "##rov": 12298, "surpassed": 15602, "frost": 10097, "revised": 8001, "magnesium": 24983, "118": 12963, "interesting": 5875, "uniform": 6375, "shannon": 10881, "[unused138]": 143, "##\u2026": 30064, "##ually": 28488, "pearl": 7247, "##\u0b95": 29918, "1749": 24704, "77": 6255, "##yama": 11613, "inclusion": 10502, "organs": 11595, "woodrow": 23954, "##ato": 10610, "##du": 8566, "##ulsion": 23316, "amore": 26297, "yet": 2664, "[unused211]": 216, "ignited": 22395, "sardinia": 21594, "county": 2221, "georgie": 20280, "[unused984]": 989, "grapes": 16575, "\u0f0d": 1425, "##hey": 14844, "##llary": 24435, "armada": 25306, "\u7701": 1920, "\u1111": 1468, "danes": 27476, "eliot": 16292, "miniature": 12973, "spacious": 22445, "shows": 3065, "explodes": 27583, "##\u110b": 29999, "cinnamon": 21229, "goblin": 22639, "desk": 4624, "inca": 27523, "##tom": 20389, "##it": 4183, "drain": 12475, "digest": 17886, "##\u56db": 30324, "cornice": 27848, "[unused257]": 262, "pathways": 16910, "tome": 21269, "dalai": 28511, "livingston": 14109, "1967": 3476, "entirely": 4498, "ives": 23945, "##dy": 5149, "##tile": 15286, "\u91cc": 1962, "fractures": 28929, "[unused490]": 495, "payroll": 26854, "notified": 19488, "cast": 3459, "assume": 7868, "human": 2529, "xp": 26726, "##ctions": 22014, "beautiful": 3376, "contracting": 21012, "assistance": 5375, "sheng": 25981, "alive": 4142, "##led": 3709, "800": 5385, "operational": 6515, "meals": 12278, "chuckles": 26088, "settled": 3876, "moose": 17716, "moderator": 29420, "nikola": 24794, "arithmetic": 20204, "analyze": 17908, "sniper": 17515, "array": 9140, "discovered": 3603, "upheld": 16813, "neue": 27713, "##\u092f": 29868, "exceptionally": 17077, "##\u2609": 30149, "loud": 5189, "royalist": 20796, "revenue": 6599, "arbor": 19679, "christchurch": 15880, "##ols": 27896, "##cho": 9905, "##tose": 22282, "##\u203a": 30068, "myers": 13854, "swap": 19948, "##ids": 9821, "fiancee": 19455, "queer": 19483, "matrices": 21520, "sheriff": 6458, "plateau": 9814, "##otti": 21325, "##lberg": 22927, "##ada": 8447, "rotor": 18929, "intersecting": 27294, "towers": 7626, "restless": 15035, "##tangle": 23395, "stationary": 17337, "1869": 7845, "##mal": 9067, "hydroelectric": 18541, "ballot": 10428, "corp": 13058, "armagh": 24678, "medicinal": 20632, "guiding": 14669, "psychiatrist": 18146, "remix": 6136, "pp": 4903, "med": 19960, "uncomfortable": 8796, "communication": 4807, "landed": 5565, "andes": 18096, "azores": 28320, "pont": 21179, "midday": 22878, "alloy": 17564, "could": 2071, "cartwright": 27513, "1618": 29029, "##ians": 7066, "efficiency": 8122, "sweat": 7518, "reduce": 5547, "##apple": 23804, "##\ufb01": 30510, "seventy": 10920, "chuckle": 15375, "bane": 25163, "freshman": 10452, "smell": 5437, "jp": 16545, "section": 2930, "continuity": 13717, "revolutionaries": 24517, "bermuda": 13525, "donnelly": 28317, "replied": 3880, "vale": 10380, "permitting": 24523, "calculation": 17208, "faso": 22773, "430": 19540, "ravi": 16806, "nightingale": 21771, "devoted": 7422, "##han": 4819, "[unused487]": 492, "[unused904]": 909, "[unused282]": 287, "friend": 2767, "contracts": 8311, "complexion": 28838, "alain": 15654, "skyscraper": 24581, "tonga": 20188, "nebula": 25677, "biting": 12344, "records": 2636, "##rya": 20444, "[unused114]": 119, "radicals": 23618, "\u2091": 1561, "telephone": 7026, "##\u3092": 30216, "injuries": 6441, "##uto": 16161, "bury": 11010, "mighty": 10478, "provides": 3640, "abandon": 10824, "whereupon": 26090, "typically": 4050, "talon": 19048, "marathon": 8589, "don": 2123, "animated": 6579, "diablo": 28841, "ripping": 17039, "##eira": 21302, "devi": 14386, "##tern": 16451, "##\u8ecd": 30481, "ensemble": 7241, "html": 16129, "murderous": 25303, "metro": 6005, "nostalgia": 26968, "gottfried": 26142, "[unused312]": 317, "580": 23712, "##osomal": 27642, "##\u306e": 30197, "npr": 21411, "antiquity": 16433, "elementary": 4732, "108": 10715, "daly": 18509, "baden": 12189, "1861": 6863, "dex": 20647, "ties": 7208, "##shan": 9688, "rushing": 8375, "[unused232]": 237, "elsa": 23452, "debris": 11385, "opener": 16181, "slogan": 14558, "comedian": 9971, "doubled": 11515, "io": 22834, "\u043c": 1191, "strain": 10178, "nebraska": 8506, "voodoo": 21768, "involuntary": 26097, "renew": 20687, "sam": 3520, "yells": 22114, "rows": 10281, "employees": 5126, "##isha": 24032, "ste": 26261, "iron": 3707, "barely": 4510, "lauderdale": 23520, "creations": 20677, "back": 2067, "gonzaga": 26840, "\u4e0d": 1744, "##ials": 26340, "constitute": 12346, "##wing": 9328, "list": 2862, "##lais": 28704, "car": 2482, "protect": 4047, "smiley": 27420, "bruins": 18159, "pang": 20657, "##berto": 21201, "1793": 12387, "[unused295]": 300, "vera": 12297, "##\u0bae": 29925, "stairway": 21952, "##\u02bf": 29714, "chung": 15972, "legend": 5722, "assassinated": 16370, "##isto": 20483, "##grad": 16307, "stern": 8665, "chet": 25157, "##\u116e": 30014, "proudly": 18067, "supervision": 10429, "professions": 22797, "pasta": 24857, "belly": 7579, "nineteen": 11977, "inched": 25330, "##icon": 28524, "olivia": 7710, "replacements": 23936, "indirect": 14958, "selma": 28112, "##dick": 24066, "written": 2517, "pretend": 9811, "[unused559]": 564, "sabbath": 19546, "relay": 8846, "anterior": 15099, "1100": 22096, "fey": 23864, "dhaka": 16479, "dl": 21469, "selector": 27000, "##growth": 26982, "midfielder": 8850, "fields": 4249, "##udes": 22087, "flashbacks": 28945, "thee": 14992, "##ored": 19574, "##yan": 7054, "democrats": 8037, "tricks": 12225, "tailor": 22701, "impacts": 14670, "lagoon": 15825, "smelled": 9557, "opportunities": 6695, "##leaf": 19213, "showered": 23973, "unspoken": 25982, "business": 2449, "mateo": 19327, "e": 1041, "##oj": 29147, "formerly": 3839, "##bourne": 11634, "\u0648": 1298, "rutgers": 18607, "##kong": 25460, "assessment": 7667, "imposing": 16625, "cyber": 16941, "##\u2090": 30089, "notation": 14869, "rotting": 22005, "lies": 3658, "##ease": 19500, "serb": 20180, "1707": 25029, "##lim": 17960, "lattice": 17779, "shifted": 5429, "##front": 12792, "[unused226]": 231, "emilio": 18644, "oman": 16640, "875": 27658, "chemistry": 6370, "parliamentary": 5768, "obedience": 22645, "1774": 17593, "##w": 2860, "bing": 17620, "electrode": 28688, "bulging": 27569, "greenland": 16128, "1985": 3106, "verbal": 12064, "32nd": 20628, "praised": 5868, "hq": 16260, "keith": 6766, "spotting": 27963, "##>": 29631, "cecilia": 18459, "oilers": 19778, "hopefully": 11504, "lehigh": 23241, "[unused286]": 291, "leopard": 16240, "approved": 4844, "\u660e": 1865, "alumni": 9441, "destined": 16036, "##lf": 10270, "bounce": 17523, "dissatisfaction": 28237, "loomed": 24358, "elevations": 18166, "hobart": 14005, "##man": 2386, "glaciers": 21193, "acquitted": 18538, "television": 2547, "frowned": 7335, "completion": 6503, "##tec": 26557, "belfast": 10330, "\u1165": 1472, "portrayed": 6791, "chilean": 12091, "\u58eb": 1807, "anything": 2505, "[unused897]": 902, "followers": 8771, "olson": 21583, "corners": 8413, "staples": 24533, "##oration": 21223, "##ae": 6679, "references": 7604, "onset": 14447, "##ike": 17339, "easiest": 25551, "[unused831]": 836, "acquire": 9878, "suzy": 28722, "##lessly": 10895, "locke": 18343, "mission": 3260, "sources": 4216, "turk": 22883, "ur": 24471, "sloping": 24724, "flanking": 24958, "crowns": 24364, "employing": 15440, "##\u4eac": 30281, "memorable": 13432, "sonora": 26647, "particle": 10811, "##nally": 26827, "sections": 5433, "##dner": 28001, "tense": 9049, "\u3048": 1649, "timeless": 27768, "fledgling": 25954, "possessive": 22105, "\u68ee": 1882, "##\u4f0a": 30288, "risky": 19188, "##eum": 14820, "wellington": 8409, "beg": 11693, "devlin": 24389, "gmina": 7061, "outsiders": 22361, "grazing": 15400, "1775": 14276, "aiden": 15086, "y": 1061, "[unused230]": 235, "alexa": 24969, "eyelids": 16544, "##hoff": 17896, "100th": 16919, "wallis": 24029, "protested": 11456, "##cs": 6169, "##dd": 14141, "credited": 5827, "servicing": 26804, "rocker": 24779, "accordingly": 11914, "pleasures": 26552, "blazing": 17162, "woody": 13703, "##iz": 10993, "fibers": 16662, "##iring": 24771, "##rest": 28533, "review": 3319, "gamble": 18503, "mascara": 27700, "lineage": 13321, "varied": 9426, "##koto": 24886, "[unused289]": 294, "superiority": 19113, "camped": 27077, "priced": 21125, "animation": 7284, "generalized": 18960, "pillow": 10005, "##ed": 2098, "nos": 16839, "treasurer": 10211, "raised": 2992, "athena": 21880, "professors": 12655, "sprayed": 25401, "shi": 11895, "viral": 13434, "shuttle": 10382, "discussions": 10287, "boyfriend": 6898, "##tour": 21163, "##erian": 27549, "informal": 11900, "sidewalk": 11996, "figurative": 29407, "cite": 21893, "divert": 27345, "meaning": 3574, "\u03c6": 1176, "endorsement": 20380, "kg": 4705, "##cycle": 23490, "illustrious": 26150, "1940s": 7675, "ho": 7570, "thor": 15321, "##wled": 28365, "\u30cb": 1716, "lifelong": 13506, "significance": 7784, "listed": 3205, "funnel": 25102, "impose": 17607, "modification": 14080, "##orough": 26388, "rao": 10546, "stranded": 15577, "\u0e07": 1410, "free": 2489, "ithaca": 27939, "\u10d9": 1446, "bonds": 9547, "lydia": 14076, "proof": 6947, "lashed": 25694, "##iation": 18963, "##eal": 15879, "##ffed": 15388, "horizon": 9154, "materialized": 27075, "exercise": 6912, "##day": 10259, "##rch": 11140, "leaning": 6729, "explanations": 17959, "axel": 18586, "[unused869]": 874, "accomplished": 8885, "worlds": 8484, "crush": 10188, "phd": 8065, "interned": 26345, "[unused563]": 568, "\u0f54": 1430, "walkover": 17495, "marty": 12578, "hose": 21290, "adventures": 7357, "nsw": 11524, "steer": 20634, "shelf": 11142, "##eves": 23047, "pedro": 7707, "mumbled": 11567, "swiss": 5364, "\u76ee": 1918, "skeleton": 13526, "instructional": 23219, "genera": 11416, "##\u2ea9": 30158, "emptied": 21764, "##rable": 16670, "##arty": 23871, "methodology": 16134, "##iness": 9961, "##\u03b9": 18199, "##eta": 12928, "display": 4653, "specializing": 14055, "##ailing": 29544, "tied": 5079, "victoria": 3848, "sweeps": 26981, "placement": 11073, "highs": 26836, "[unused970]": 975, "civil": 2942, "[unused698]": 703, "year": 2095, "thesis": 9459, "ups": 11139, "##pressing": 24128, "##36": 21619, "code": 3642, "crows": 21623, "##ran": 5521, "##ais": 15593, "##hema": 28433, "console": 10122, "explicitly": 12045, "siren": 19558, "[unused21]": 22, "[unused704]": 709, "madman": 28441, "203": 18540, "dorothea": 24052, "\u04cf": 1218, "tis": 22320, "neutrality": 21083, "occupies": 14133, "##x": 2595, "fence": 8638, "##\u90fd": 30487, "slits": 29199, "banjo": 16698, "prospective": 17464, "activation": 13791, "##mar": 7849, "herrera": 23527, "cult": 8754, "profitable": 15282, "room": 2282, "##dc": 16409, "prague": 8634, "##sle": 25016, "reform": 5290, "salaries": 20566, "creaked": 28068, "whitehead": 23257, "pig": 10369, "campaign": 3049, "##rell": 16230, "##chuk": 26516, "\u72ac": 1908, "scholarship": 6566, "mata": 22640, "ontario": 4561, "##ray": 9447, "##hyllum": 27750, "pressing": 7827, "##ud": 6784, "##church": 22743, "klein": 12555, "iq": 26264, "commanded": 6311, "##oire": 26250, "yemen": 13968, "theirs": 17156, "##tish": 24788, "\u2083": 1550, "50th": 12951, "##corp": 24586, "installed": 5361, "mg": 11460, "protecting": 8650, "##tee": 17389, "##\u10e1": 29988, "nonsense": 14652, "wembley": 16538, "\u043d": 1192, "##ogen": 23924, "\u0440": 1195, "meteorological": 20557, "\u0b9a": 1383, "lilly": 14765, "eccentric": 18080, "peshawar": 28777, "corresponded": 27601, "##\u304b": 30177, "unexpected": 9223, "stores": 5324, "hostile": 10420, "brakes": 13627, "##lization": 22731, "##ye": 6672, "bilbao": 25427, "locating": 26339, "examination": 7749, "adolescence": 29101, "capacities": 21157, "prowess": 26120, "ra": 10958, "acknowledge": 13399, "[unused274]": 279, "##ara": 5400, "sockets": 27540, "2d": 14134, "##chison": 27795, "features": 2838, "##tara": 27115, "nietzsche": 28898, "targets": 7889, "doherty": 23798, "stored": 8250, "imaginative": 28575, "tornadoes": 22668, "info": 18558, "309": 25048, "dissatisfied": 25956, "capped": 13880, "spectator": 21027, "markedly": 29295, "tai": 13843, "lizards": 23898, "aldo": 28163, "prize": 3396, "brackets": 19719, "##beat": 19442, "ingram": 23231, "retro": 22307, "assertion": 23617, "calming": 23674, "##kind": 18824, "##sily": 26863, "##resses": 25932, "##cha": 7507, "##ks": 5705, "parameters": 11709, "shooting": 5008, "\u098f": 1351, "hawker": 23937, "##\u0436": 29743, "cushions": 27205, "swarm": 21708, "spilling": 18054, "driveway": 11202, "twinkle": 29038, "[unused893]": 898, "pleaded": 12254, "##nad": 25389, "suns": 19352, "\u045b": 1217, "given": 2445, "glory": 8294, "statutory": 15201, "considerations": 16852, "##\u00fe": 29670, "mergers": 28585, "wanna": 10587, "gunshot": 22077, "1941": 3874, "welded": 29014, "151": 16528, "##\u2192": 30113, "rounded": 8352, "mattress": 13342, "shortlisted": 21353, "nigel": 12829, "rays": 9938, "normal": 3671, "##q": 4160, "programmer": 20273, "\u963f": 1971, "[unused606]": 611, "distracted": 11116, "naval": 3987, "mortal": 9801, "luck": 6735, "dee": 9266, "##\u0630": 29822, "layered": 21323, "[unused337]": 342, "vulture": 27588, "proper": 5372, "upstairs": 8721, "##go": 3995, "muffled": 15783, "##llan": 19036, "[unused9]": 10, "violently": 14196, "270": 13756, "vancouver": 6930, "lecture": 8835, "lyman": 27587, "##ucci": 16835, "protests": 8090, "[unused959]": 964, "acoustic": 6490, "constitution": 4552, "salford": 23001, "denver": 7573, "earthly": 29520, "annie": 8194, "simplest": 21304, "mic": 23025, "ee": 25212, "clare": 11152, "press": 2811, "dietary": 23444, "remedy": 19519, "denies": 23439, "sponsored": 6485, "brushes": 22569, "[unused981]": 986, "isles": 14195, "functional": 8360, "\u209a": 1569, "diamonds": 11719, "##terol": 27833, "burma": 11050, "mcmillan": 27436, "##sler": 20590, "nestor": 25397, "limiting": 14879, "[unused643]": 648, "during": 2076, "splashed": 22055, "paige": 17031, "##frid": 27439, "wendy": 12815, "[unused82]": 83, "[unused395]": 400, "commemorated": 19131, "##\uff0c": 30515, "comune": 21130, "questioned": 8781, "after": 2044, "suits": 11072, "ethical": 12962, "covered": 3139, "gently": 5251, "juniper": 29425, "germans": 7074, "1700": 16601, "bells": 10118, "##oon": 7828, "yank": 23178, "hug": 8549, "distributions": 20611, "uranium": 14247, "\u02e3": 1153, "##laya": 22923, "clandestine": 24450, "purported": 27023, "jody": 27562, "delaying": 29391, "biased": 25352, "shan": 17137, "colorado": 5169, "saturated": 23489, "warner": 6654, "sipping": 24747, "wrapped": 5058, "[unused762]": 767, "thayer": 25563, "##ber": 5677, "##wice": 23425, "touching": 7244, "##nidae": 29135, "##ressed": 16119, "debates": 14379, "salle": 18005, "incurred": 22667, "##\u00df": 19310, "icc": 16461, "z": 1062, "locker": 12625, "##dity": 25469, "irish": 3493, "barony": 19365, "##ulent": 27581, "commuted": 26704, "##gly": 25643, "mammoth": 23714, "##urgent": 27176, "andersson": 28643, "##rative": 18514, "touches": 12817, "fried": 13017, "packages": 14555, "##anu": 24076, "believe": 2903, "law": 2375, "##fell": 23510, "\u0574": 1229, "tattoos": 18395, "83": 6640, "1853": 8933, "##bate": 20179, "selecting": 17739, "ko": 12849, "##nah": 15272, "1622": 28133, "cloak": 11965, "\u3044": 1647, "boating": 23639, "equally": 8053, "debuting": 24469, "##ocytes": 28788, "##\u7fa9": 30462, "##ma": 2863, "##cier": 19562, "automotive": 12945, "momentarily": 16032, "distract": 15886, "liable": 20090, "##uing": 25165, "exchanges": 15800, "barcelona": 7623, "##ough": 10593, "##ser": 8043, "lois": 15815, "pristine": 27375, "triggered": 13330, "solid": 5024, "ru": 21766, "example": 2742, "[unused92]": 93, "oh": 2821, "\u05e6": 1263, "gig": 15453, "chairperson": 19072, "le": 3393, "##inn": 23111, "spectroscopy": 25458, "gut": 9535, "randolph": 13031, "\u82b1": 1940, "troubled": 11587, "dealers": 16743, "referenced": 14964, "madonna": 11284, "renault": 14605, "##ards": 18117, "[unused199]": 204, "##ian": 2937, "snowfall": 26043, "leach": 24520, "cromwell": 16759, "##venor": 26806, "urging": 14328, "##ert": 8743, "stole": 10312, "guise": 21980, "relationship": 3276, "practised": 20439, "millimetres": 13388, "##air": 11215, "##vius": 26055, "tq": 28816, "heller": 25038, "##ele": 12260, "##oso": 19137, "tires": 13310, "##uder": 29190, "##baldi": 28807, "##sher": 19603, "petroleum": 11540, "explosion": 7738, "indian": 2796, "guru": 11972, "hive": 26736, "308": 24232, "##ppet": 29519, "illegal": 6206, "##rky": 15952, "wherever": 11210, "dragon": 5202, "acquainted": 19056, "ucla": 12389, "munster": 11348, "1936": 4266, "scrambled": 13501, "bronx": 14487, "sage": 10878, "##zing": 6774, "##'": 29618, "##mbit": 28878, "released": 2207, "saxophonist": 19977, "manufacture": 9922, "lex": 17244, "escape": 4019, "lucas": 6326, "treated": 5845, "##icles": 20921, "throbbing": 17061, "occasions": 6642, "corridors": 17506, "lexi": 16105, "municipality": 3250, "splitting": 14541, "cerambycidae": 13168, "##\u4e95": 30280, "##dlow": 27002, "ecclesiastical": 12301, "1909": 5556, "##mba": 11201, "sol": 14017, "##bson": 27355, "neck": 3300, "##\u5206": 30301, "nguyen": 16577, "flavors": 26389, "addiction": 13449, "davidson": 12017, "belize": 18867, "climbs": 18881, "##uz": 17040, "longtime": 11155, "respectable": 19416, "insertion": 23851, "blair": 10503, "fighting": 3554, "idol": 10282, "consistently": 10862, "##wo": 12155, "[unused739]": 744, "attending": 7052, "suspicion": 10928, "unbroken": 29505, "##bara": 20709, "recognizable": 20123, "pew": 29071, "yarmouth": 28792, "carved": 7844, "##\u0142a": 22972, "##be": 4783, "##za": 4143, "processor": 13151, "film": 2143, "aristocracy": 22706, "artwork": 8266, "successor": 6332, "##mu": 12274, "##rter": 19418, "threaded": 26583, "tug": 12888, "pleasantly": 27726, "[unused776]": 781, "contacts": 10402, "scots": 12196, "##ali": 11475, "cantata": 23629, "punjabi": 17498, "10": 2184, "1981": 3261, "alpine": 10348, "cheek": 5048, "hiv": 9820, "1965": 3551, "filippo": 28669, "fancy": 11281, "##tle": 9286, "thicker": 19638, "blackish": 22032, "poles": 10567, "fatally": 26292, "excluding": 13343, "##art": 8445, "##gis": 17701, "\u767a": 1914, "flowing": 8577, "trainer": 10365, "mirrored": 22243, "##world": 11108, "robbery": 13742, "revoked": 22837, "springer": 17481, "##ise": 5562, "toned": 27604, "sylvia": 13378, "optimistic": 21931, "elliott": 9899, "##\u1d43": 30032, "##iving": 14966, "carvings": 22838, "sewer": 22365, "\u00b9\u2044\u2082": 18728, "nara": 27544, "discussed": 6936, "gum": 16031, "cheng": 15898, "susquehanna": 26361, "##dor": 7983, "##\u2015": 30053, "phi": 13569, "monopoly": 15404, "##beam": 28302, "\u056f": 1227, "greater": 3618, "##jure": 25243, "disks": 23999, "rutland": 27780, "relieved": 7653, "miscellaneous": 25408, "something": 2242, "##\u0f58": 29968, "papua": 13049, "modern": 2715, "##enham": 23580, "bourgeois": 22846, "artificial": 7976, "complimented": 27175, "seychelles": 27438, "auditorium": 11448, "michel": 8709, "##bird": 9001, "lashes": 16008, "strongest": 10473, "##sma": 26212, "##\u7537": 30438, "paper": 3259, "gazes": 23514, "##balance": 26657, "lucknow": 23571, "distances": 12103, "settings": 10906, "vinegar": 29387, "anthropologist": 21571, "serene": 25388, "##ington": 7853, "##llar": 17305, "##\u0570": 29775, "milky": 21582, "fascinating": 17160, "##fe": 7959, "##oes": 22504, "vocational": 13099, "comprise": 15821, "processed": 13995, "learning": 4083, "##\u00b0": 7737, "245": 21005, "founders": 8759, "##oy": 6977, "\u05e1": 1258, "janata": 20308, "internationale": 21339, "272": 24231, "bomb": 5968, "\u30e2": 1727, "nix": 23330, "penned": 17430, "playing": 2652, "guam": 16162, "rican": 13641, "##urrent": 29264, "chains": 8859, "[unused745]": 750, "programme": 4746, "##\u05e5": 29808, "el": 3449, "283": 25504, "townland": 23635, "polk": 20819, "##\u662d": 30394, "thug": 26599, "topics": 7832, "missionary": 8696, "baskets": 25946, "benefited": 19727, "inadvertently": 21089, "420": 17442, "null": 19701, "rugby": 4043, "blushing": 25771, "significant": 3278, "tracy": 10555, "shifting": 9564, "##bet": 20915, "shields": 11824, "winger": 16072, "exclusively": 7580, "dying": 5996, "complain": 17612, "gypsy": 16006, "famously": 18172, "unable": 4039, "metis": 26057, "mil": 23689, "##\u82b1": 30466, "keane": 27228, "communications": 4806, "applause": 20737, "practicing": 12560, "vibrating": 24987, "\u2092": 1562, "turkic": 22926, "newmarket": 22489, "1995": 2786, "crimean": 20516, "crimea": 21516, "johor": 25268, "porte": 25927, "##unce": 17457, "tyrol": 27193, "1976": 3299, "jul": 21650, "soto": 22768, "ciudad": 20759, "##dt": 11927, "##51": 22203, "ernst": 10728, "hardship": 26479, "girls": 3057, "apache": 15895, "227": 21489, "thermal": 9829, "venezuelan": 15332, "\u062e": 1277, "bet": 6655, "footed": 28856, "policing": 21107, "cb": 17324, "brest": 22451, "##bing": 10472, "southward": 22161, "definition": 6210, "155": 14168, "properties": 5144, "##itt": 12474, "tell": 2425, "##pani": 26569, "vt": 28879, "bankrupt": 17482, "stains": 27094, "unprecedented": 15741, "appeals": 9023, "neighbour": 20065, "\u1102": 1456, "indicator": 17245, "[unused876]": 881, "discovery": 5456, "jeep": 14007, "civilian": 6831, "accommodate": 8752, "hats": 16717, "reputation": 5891, "walked": 2939, "categorized": 20427, "broom": 23528, "rapper": 10687, "imagery": 13425, "prologue": 18877, "caitlin": 27555, "##dell": 12662, "ornate": 18099, "william": 2520, "sandstone": 11694, "uses": 3594, "treaty": 5036, "microscope": 24635, "royalty": 16664, "consulting": 10552, "wagons": 14525, "restroom": 28249, "##\u0255": 29680, "##rang": 24388, "page": 3931, "calf": 19134, "##oons": 27174, "accelerated": 14613, "melt": 14899, "homosexual": 15667, "otis": 18899, "##nery": 27415, "##dman": 21804, "##\u0927": 29862, "##bs": 5910, "##erving": 25164, "symbolic": 12613, "erupted": 12591, "stance": 11032, "##feng": 24383, "mistakenly": 20706, "[unused287]": 292, "[unused777]": 782, "theatrical": 8900, "pounded": 13750, "##bron": 21337, "mysteries": 15572, "bathurst": 21897, "gregorian": 25847, "visions": 12018, "oceanic": 18955, "ammonia": 25874, "##hiff": 25798, "##sor": 21748, "henan": 27837, "\u0bb5": 1394, "schoolhouse": 26301, "politics": 4331, "penetrated": 21653, "gottingen": 23607, "##rna": 12789, "##ric": 7277, "pursed": 21954, "alternately": 23554, "stick": 6293, "exercised": 17747, "frantically": 16460, "glove": 15913, "raises": 13275, "##well": 4381, "##mit": 22930, "##culture": 14561, "##gam": 22864, "##tty": 15353, "manually": 21118, "lithuanian": 10333, "jurisprudence": 24697, "nikita": 29106, "hahn": 24266, "[unused990]": 995, "participating": 8019, "carole": 24348, "1580": 28278, "chang": 11132, "superstructure": 28391, "slabs": 28761, "[unused742]": 747, "tractor": 16358, "lambda": 23375, "1958": 3845, "[unused652]": 657, "pure": 5760, "informed": 6727, "milwaukee": 9184, "integrating": 22380, "##tro": 13181, "typhoon": 15393, "theoretically": 22634, "##storm": 19718, "\u2090": 1560, "baird": 20866, "##52": 25746, "prentice": 23429, "[unused873]": 878, "pact": 14790, "##z": 2480, "totaled": 23596, "##osh": 17369, "scoring": 4577, "##ri": 3089, "lacy": 19959, "vertices": 18984, "instead": 2612, "eddie": 5752, "inclusive": 18678, "relocation": 18344, "##hila": 26415, "julie": 7628, "assign": 23911, "cancers": 25409, "unaffected": 24720, "overlooking": 12549, "dissolution": 12275, "[unused229]": 234, "heading": 5825, "backgrounds": 15406, "norte": 19931, "congestion": 20176, "additive": 29167, "##dee": 26095, "jacobs": 12988, "strains": 18859, "chennai": 12249, "jackets": 17764, "[unused251]": 256, "jules": 11044, "apex": 13450, "bodyguards": 25681, "paint": 6773, "teammates": 13220, "stain": 21101, "yeast": 21957, "mcdonnell": 23149, "##umb": 25438, "chevy": 29009, "pretended": 14688, "providing": 4346, "almeida": 29555, "rufus": 18316, "pastry": 27060, "##wes": 18192, "lulu": 21744, "sprawling": 24199, "remained": 2815, "##ising": 9355, "[unused475]": 480, "grinned": 6973, "deemed": 8357, "##camp": 26468, "[unused12]": 13, "1817": 12529, "gambling": 12219, "robin": 5863, "newscasts": 24482, "rein": 27788, "gorge": 14980, "##\u7248": 30433, "galveston": 26630, "##ired": 27559, "hop": 6154, "##giri": 23243, "##iger": 17071, "diego": 5277, "anxiously": 23403, "parry": 20803, "godfrey": 18238, "to": 2000, "gleamed": 25224, "##plify": 28250, "antonia": 24272, "ceremonies": 10912, "spur": 12996, "##ffled": 28579, "1660": 17954, "faber": 21720, "kilda": 22633, "lizzie": 15860, "thrive": 25220, "contrasted": 22085, "##\u2083": 11622, "craig": 7010, "##\u0432": 25529, "fragile": 13072, "archaeologists": 19254, "##\u0bb5": 29930, "meet": 3113, "baronet": 8693, "poll": 8554, "siemens": 22108, "outreach": 15641, "aarhus": 29173, "regards": 12362, "[unused685]": 690, "1954": 4051, "naked": 6248, "##tsa": 27110, "koch": 15259, "##oin": 28765, "##sies": 14625, "1605": 28202, "interlude": 25347, "courtesy": 14571, "[unused750]": 755, "sheep": 8351, "horses": 5194, "syndicate": 16229, "\u02b7": 1143, "##\u03c4": 29734, "basically": 10468, "cloudy": 24706, "carpathian": 26349, "sal": 16183, "organization": 3029, "basic": 3937, "activate": 20544, "##sund": 25168, "staple": 18785, "reunion": 10301, "advantages": 12637, "\u5341": 1783, "traveler": 20174, "##wart": 18367, "talk": 2831, "uci": 14504, "basket": 10810, "convention": 4680, "tariffs": 26269, "brewer": 18710, "fear": 3571, "substrate": 16305, "wales": 3575, "harp": 14601, "bonnet": 24367, "##dles": 27822, "ml": 19875, "\u201c": 1523, "inflammation": 21733, "##ivated": 21967, "execute": 15389, "distortion": 20870, "slant": 27474, "\u0433": 1183, "##tp": 25856, "savanna": 22323, "hash": 23325, "nuclei": 23767, "##\u03c9": 29739, "middleweight": 18741, "waterloo": 13784, "##tland": 19270, "4a": 26424, "##oping": 17686, "\u53e4": 1789, "##\u0d9a": 29939, "hood": 7415, "absently": 21284, "cabin": 6644, "antibodies": 22931, "operations": 3136, "pulpit": 23134, "three": 2093, "##uce": 18796, "b1": 29491, "natasha": 17399, "[unused826]": 831, "[unused797]": 802, "calves": 28023, "twain": 24421, "that": 2008, "butter": 12136, "[unused375]": 380, "panic": 6634, "lucrative": 21115, "characteristics": 6459, "[unused55]": 56, "compute": 24134, "##\u30d8": 30247, "load": 7170, "set": 2275, "umpire": 20887, "sixty": 8442, "norman": 5879, "majesty": 9995, "accounting": 9529, "sword": 4690, "attacks": 4491, "performance": 2836, "xiao": 19523, "[unused711]": 716, "syllable": 16353, "swamps": 22722, "tong": 15740, "antiques": 27763, "often": 2411, "\u4eba": 1756, "able": 2583, "railways": 7111, "##ai": 4886, "structure": 3252, "ends": 4515, "wax": 13844, "contractors": 16728, "linen": 17517, "split": 3975, "centenary": 17705, "mercury": 8714, "[unused924]": 929, "shoe": 10818, "wisdom": 9866, "telugu": 12180, "introduces": 13999, "patting": 26085, "roasted": 28115, "libre": 21091, "jane": 4869, "cumbria": 25559, "showcases": 27397, "##anian": 26032, "flowed": 13230, "domestic": 4968, "belarusian": 15626, "[unused57]": 58, "undertaken": 10607, "preserved": 6560, "perhaps": 3383, "sizable": 25908, "shrines": 22562, "##lini": 22153, "practitioners": 14617, "unfinished": 14342, "[unused886]": 891, "environmentally": 25262, "femme": 26893, "replicate": 28024, "1906": 5518, "##ique": 7413, "directors": 5501, "libraries": 8860, "puerto": 5984, "promise": 4872, "loyal": 8884, "mueller": 26774, "its": 2049, "noise": 5005, "174": 19492, "bearded": 23905, "gallagher": 17297, "##gami": 26517, "dutch": 3803, "##\u30ce": 30243, "catering": 18640, "purcell": 26429, "##\u2076": 30075, "caressing": 25296, "jon": 6285, "encyclopedia": 12204, "juveniles": 25406, "synthesized": 23572, "he": 2002, "concerning": 7175, "doorway": 7086, "messed": 18358, "##9th": 25660, "02": 6185, "moat": 25266, "\u5185": 1773, "overwhelmed": 13394, "##pi": 8197, "##shida": 25541, "ce": 8292, "[unused784]": 789, "hesitated": 9369, "##cb": 27421, "##graph": 14413, "stroke": 6909, "clutches": 29497, "pali": 28619, "startling": 19828, "lift": 6336, "pcs": 27019, "vectors": 19019, "nitrate": 29607, "newton": 8446, "liver": 11290, "plague": 11629, "runway": 9271, "nuevo": 22250, "limited": 3132, "exciting": 10990, "stops": 6762, "untouched": 22154, "jihad": 24815, "factions": 13815, "338": 27908, "niccolo": 27033, "kung": 18577, "##cian": 14483, "naomi": 12806, "##\u0938": 29874, "obituary": 20815, "events": 2824, "deposited": 14140, "terribly": 16668, "munitions": 21061, "nominees": 17853, "##bley": 29538, "converse": 23705, "crowds": 12783, "declines": 26451, "##athy": 17308, "gretchen": 21625, "clapped": 18310, "dept": 29466, "greeted": 11188, "##\u53e4": 30315, "contradiction": 26917, "hove": 25215, "arrives": 8480, "late": 2397, "dolly": 19958, "var": 13075, "banners": 23562, "\u0e25": 1418, "notre": 10289, "titus": 18828, "symbolism": 22050, "##nko": 16107, "fragments": 10341, "booker": 16674, "espana": 20678, "went": 2253, "significantly": 6022, "##hiti": 27798, "\u00b4": 1084, "demonstrations": 13616, "##ures": 14900, "carver": 20163, "##zic": 27586, "agony": 12812, "##\u795e": 30451, "unlawful": 22300, "spices": 21729, "##ess": 7971, "##tlan": 28922, "grain": 8982, "cooke": 16546, "rhine": 10950, "tries": 5363, "##phate": 24556, "##\u624b": 30384, "middle": 2690, "136": 15407, "castillo": 19371, "damn": 4365, "distributed": 5500, "##wind": 11101, "enhancement": 22415, "arbitration": 18010, "cu": 12731, "##ouring": 27897, "##nay": 16741, "corporation": 3840, "builds": 16473, "champion": 3410, "321": 24030, "bf": 28939, "shining": 9716, "outnumbered": 21943, "[unused22]": 23, "independent": 2981, "slowed": 9784, "ignacio": 22988, "aboriginal": 9757, "ignatius": 26841, "\u1d4d": 1500, "thickness": 14983, "##rge": 20800, "##\u2077": 30076, "ely": 20779, "juvenile": 11799, "underworld": 13607, "##\u0bb3": 29929, "chong": 24008, "##tower": 23196, "crews": 10604, "widely": 4235, "[unused281]": 286, "kate": 5736, "dialed": 21300, "mastering": 11495, "##uy": 26230, "warmth": 8251, "maze": 15079, "nw": 22064, "paraguay": 13884, "tech": 6627, "coptic": 27672, "##er": 2121, "teaser": 27071, "louis": 3434, "arresting": 28427, "focusing": 7995, "232": 20666, "yamaha": 24031, "[unused60]": 61, "pits": 14496, "lasting": 9879, "##charged": 22620, "wander": 17677, "blink": 12373, "[unused748]": 753, "controller": 11486, "##rius": 13245, "among": 2426, "dignitaries": 27960, "bytes": 27507, "joining": 5241, "##ta": 2696, "scotland": 3885, "##ization": 3989, "leonardo": 14720, "##ages": 13923, "terminating": 23552, "trembling": 10226, "manipulating": 26242, "##ug": 15916, "lined": 7732, "isotope": 28846, "considered": 2641, "\u2022": 1528, "coli": 27441, "\u3008": 1637, "\u53f2": 1790, "##rip": 29443, "forty": 5659, "[unused894]": 899, "##istic": 6553, "\u209b": 1570, "plymouth": 10221, "[unused361]": 366, "##s": 2015, "neutral": 8699, "barclay": 23724, "birth": 4182, "[unused404]": 409, "\u30c4": 1712, "clouds": 8044, "jenkins": 11098, "##nius": 20447, "sums": 20571, "resigned": 5295, "##rier": 16252, "ligand": 27854, "##log": 21197, "##66": 28756, "jury": 6467, "##\u5ddd": 30361, "##onte": 28040, "penelope": 18641, "1875": 7466, "##unt": 16671, "[unused579]": 584, "1709": 28955, "[unused231]": 236, "kenny": 8888, "[unused591]": 596, "roadside": 25131, "inspector": 7742, "[unused188]": 193, "allegheny": 21192, "brands": 9639, "responsibility": 5368, "reminds": 15537, "##elo": 18349, "postage": 22981, "narrow": 4867, "honneur": 28197, "[unused973]": 978, "compiling": 21953, "1658": 28944, "refining": 28596, "heraldic": 28867, "##kai": 11151, "correlation": 16902, "nasser": 26099, "spanned": 18212, "##enberg": 11029, "cinderella": 21686, "infinite": 10709, "hollis": 27477, "clockwise": 22839, "reserves": 8269, "1665": 27676, "attain": 18759, "##cter": 21162, "jockey": 13989, "witty": 25591, "sutton": 11175, "##uen": 24997, "collisions": 28820, "forsyth": 29434, "brasil": 21133, "honolulu": 16598, "dil": 29454, "emmett": 25685, "##ic": 2594, "phillips": 8109, "seek": 6148, "hockey": 3873, "majors": 15279, "englishman": 25244, "142": 16087, "##ra\u00dfe": 27807, "##rly": 21194, "panels": 9320, "coven": 25248, "singing": 4823, "condition": 4650, "marie": 5032, "clutched": 13514, "moaned": 12557, "movie": 3185, "tatiana": 22725, "scope": 9531, "shadowy": 22801, "humiliated": 26608, "disabled": 9776, "##ello": 15350, "muted": 22124, "mania": 29310, "streamed": 18498, "funds": 5029, "springsteen": 26002, "naturally": 8100, "acidic": 24171, "macau": 16878, "country": 2406, "decides": 7288, "##\u1103": 29993, "waves": 5975, "fluffy": 27036, "chords": 18495, "rouge": 12801, "##da": 2850, "commencing": 25819, "rebuilding": 14584, "punching": 19477, "competed": 3879, "wars": 5233, "subscribers": 17073, "sweet": 4086, "##mel": 10199, "stupidity": 28072, "##rogate": 21799, "benny": 11945, "julio": 15090, "##se": 3366, "##omy": 16940, "disturbed": 12491, "programmed": 16984, "gates": 6733, "##wash": 28556, "ness": 23384, "aback": 26575, "etat": 17997, "advertisement": 15147, "presentations": 18216, "##hian": 14204, "bulls": 12065, "undead": 17315, "adds": 9909, "ranked": 4396, "##jing": 29518, "enforce": 16306, "rouse": 27384, "tailored": 21727, "##ttle": 26328, "available": 2800, "lindsay": 12110, "now": 2085, "rubs": 28860, "##omics": 25524, "[unused269]": 274, "amusing": 19142, "##lat": 20051, "##ddle": 20338, "psychologist": 15034, "cheltenham": 18763, "peaking": 13015, "niche": 18111, "bank": 2924, "sick": 5305, "pair": 3940, "lasted": 6354, "nearly": 3053, "##gonal": 20028, "nicole": 9851, "doping": 23799, "##gens": 21230, "necks": 26082, "huron": 21899, "1855": 8492, "strapped": 18019, "homeland": 10759, "moans": 24675, "clients": 7846, "filmmaker": 12127, "grandchildren": 13628, "##br": 19892, "##orum": 20527, "handles": 16024, "emilia": 20417, "poet": 4802, "americas": 10925, "descriptive": 22726, "muhammad": 7187, "swept": 7260, "leap": 11679, "poole": 19107, "thirds": 12263, "geared": 23636, "treason": 14712, "##inkles": 28562, "##itch": 20189, "##hic": 16066, "eliminating": 15349, "##\u301c": 30171, "query": 23032, "scouting": 14299, "herbert": 7253, "acid": 5648, "ms": 5796, "rc": 22110, "holstein": 18864, "railroad": 4296, "collateral": 24172, "[unused58]": 59, "breached": 25769, "greatly": 6551, "guerrilla": 15722, "fingers": 3093, "##cated": 12921, "completing": 7678, "canada": 2710, "antoinette": 28429, "undergo": 13595, "linnaeus": 21610, "overrun": 24672, "roi": 25223, "capabilities": 9859, "precision": 11718, "republics": 24822, "##ras": 8180, "distributors": 22495, "potomac": 18854, "\u1d62": 1507, "pretending": 12097, "lord": 2935, "h": 1044, "demolition": 12451, "lancashire": 9638, "##linson": 25051, "bain": 28477, "145": 13741, "##ignon": 24796, "##\u308c": 30214, "55": 4583, "##\u5e73": 30365, "jae": 22770, "dash": 11454, "preventing": 10723, "opium": 21075, "academy": 2914, "laugh": 4756, "surveyed": 12876, "##\u30f3": 30263, "phrases": 15672, "1876": 7326, "roland": 8262, "##lone": 27165, "slower": 12430, "messiah": 22112, "##\u2208": 30124, "evolving": 20607, "burlington": 15552, "##ting": 3436, "orders": 4449, "##bilis": 27965, "worcestershire": 20218, "why": 2339, "pumping": 14107, "##wei": 19845, "dislike": 18959, "crawford": 10554, "dead": 2757, "distribute": 16062, "fatigue": 16342, "mannheim": 25116, "brisbane": 7717, "denoted": 19537, "pirate": 11304, "doctoral": 11316, "establishes": 21009, "##rney": 27114, "##link": 13767, "muriel": 27616, "recruitment": 15680, "persians": 27229, "wing": 3358, "ideas": 4784, "sousa": 28535, "802": 23908, "absorbed": 9063, "dion": 19542, "myriad": 25028, "connected": 4198, "##atus": 15590, "heather": 9533, "##vate": 16952, "##3": 2509, "overtime": 12253, "[unused540]": 545, "nominated": 4222, "pilot": 4405, "professorship": 22661, "vidal": 29259, "##eem": 21564, "##\u5e74": 30366, "[unused32]": 33, "elector": 20374, "jays": 18930, "joked": 19700, "crewe": 22188, "[unused177]": 182, "benoit": 21721, "##ont": 12162, "##as": 3022, "manipulate": 17708, "routine": 9410, "charms": 24044, "gt": 14181, "leicestershire": 20034, "##mg": 24798, "##net": 7159, "against": 2114, "contractor": 13666, "128": 11899, "anatolia": 23747, "grants": 8624, "##finger": 20349, "excluded": 12421, "forecast": 19939, "##tray": 28473, "[unused149]": 154, "honor": 3932, "##osity": 25949, "crowd": 4306, "faded": 8105, "braun": 21909, "##rz": 15378, "[unused389]": 394, "amongst": 5921, "surf": 14175, "attacker": 17346, "freeway": 10846, "engineer": 3992, "insulation": 25710, "ua": 25423, "announcing": 13856, "observers": 14009, "negatively": 19762, "remnants": 11270, "failed": 3478, "##\u0274": 29690, "bricks": 14219, "nellie": 25365, "armoured": 11104, "athletes": 7576, "candi": 27467, "salvatore": 17485, "fen": 21713, "proving": 13946, "##isation": 6648, "transverse": 18323, "teach": 6570, "##\u02bc": 29712, "351": 28474, "staged": 9813, "##\u026f": 29688, "clade": 21697, "1937": 4347, "3000": 11910, "marian": 14042, "opened": 2441, "spared": 16891, "##skie": 23955, "wheat": 10500, "##cious": 18436, "easier": 6082, "crypt": 19888, "dancer": 8033, "uc": 15384, "saigon": 24001, "wei": 11417, "lurking": 24261, "prematurely": 28179, "##usia": 24118, "schubert": 24645, "[unused832]": 837, "supplier": 17024, "hoffmann": 24437, "futures": 17795, "lyle": 21971, "##\u00a7": 29650, "sawmill": 24744, "shaw": 8233, "slayer": 20005, "brooding": 28902, "##nn": 10695, "physically": 8186, "bryan": 8527, "livingstone": 27656, "pontifical": 22362, "wakefield": 16045, "redistribution": 25707, "stab": 17079, "insane": 9577, "litter": 19070, "viper": 17947, "##th": 2705, "computer": 3274, "description": 6412, "[unused808]": 813, "ocean": 4153, "dodd": 21258, "brightness": 18295, "##fen": 18940, "branching": 23346, "frame": 4853, "1914": 4554, "dod": 26489, "\u30b3": 1704, "edinburgh": 5928, "leaps": 29195, "bedrock": 28272, "rover": 13631, "persecution": 14522, "sm": 15488, "[unused268]": 273, "vh1": 26365, "firm": 3813, "knife": 5442, "viet": 19710, "sectional": 27197, "marin": 16400, "bombed": 18897, "seemed": 2790, "legged": 15817, "zurich": 10204, "fashionable": 19964, "perfume": 17013, "admiring": 24588, "lever": 15929, "colbert": 23928, "[unused802]": 807, "diameter": 6705, "##o": 2080, "##yer": 10532, "chamber": 4574, "##oted": 27428, "[unused185]": 190, "podium": 14502, "sofa": 10682, "teaching": 4252, "europe": 2885, "nak": 17823, "situations": 8146, "##ogy": 15707, "\u0bbf": 1396, "vo": 29536, "xv": 15566, "shores": 13312, "##lance": 23078, "telegraph": 10013, "tourists": 9045, "laws": 4277, "allah": 16455, "nbl": 28013, "resist": 9507, "acquaintances": 29409, "therapy": 7242, "reservoirs": 22535, "pere": 23976, "damon": 11317, "seasoned": 28223, "subtle": 11259, "deutschland": 28668, "waving": 12015, "credible": 23411, "loaded": 8209, "[unused585]": 590, "eric": 4388, "tackles": 10455, "congregational": 20809, "burial": 8940, "degradation": 16627, "193": 19984, "window": 3332, "judge": 3648, "##pu": 14289, "sacred": 6730, "##auer": 21126, "[unused377]": 382, "rather": 2738, "jordanian": 26276, "##gaon": 27073, "##dom": 9527, "hilda": 21589, "decor": 25545, "##stown": 13731, "somewhere": 4873, "un": 4895, "##herton": 27949, "##onus": 24891, "##bation": 23757, "net": 5658, "##yang": 12198, "##dded": 19520, "joins": 9794, "mapping": 12375, "liege": 17766, "##kari": 20224, "gracefully": 28266, "thessaloniki": 23162, "caps": 9700, "##kei": 29501, "widow": 7794, "1997": 2722, "imprint": 15738, "##h": 2232, "date": 3058, "reluctant": 11542, "atomic": 9593, "##udged": 27066, "##\u201d": 30059, "747": 25374, "warfare": 8309, "##eding": 17819, "##aea": 21996, "##nail": 25464, "deserved": 10849, "katherine": 9477, "my": 2026, "216": 20294, "motorized": 26172, "lemon": 14380, "includes": 2950, "##rsk": 27472, "1842": 10008, "menacing": 24060, "fairfax": 17833, "schumacher": 22253, "##quin": 12519, "##usa": 10383, "offices": 4822, "honorable": 13556, "##hine": 14014, "mp": 6131, "digging": 10443, "alla": 25699, "spirits": 8633, "##load": 11066, "sobs": 21503, "brew": 24702, "brake": 13428, "reigning": 16323, "fellowship": 7881, "disney": 6373, "\u10e1": 1452, "disguise": 14249, "1862": 6889, "provoked": 19157, "##ppa": 13944, "pathetic": 17203, "utilizes": 21852, "##port": 6442, "##ab": 7875, "##lita": 27606, "##elling": 23918, "##kir": 23630, "##hosis": 25229, "repetition": 23318, "authorship": 26324, "glancing": 10167, "michigan": 4174, "##ore": 5686, "filming": 7467, "##uh": 27225, "[unused132]": 137, "##hedron": 26440, "##hone": 27406, "smuggling": 19535, "pertaining": 20246, "sterile": 25403, "##rricular": 21231, "vamps": 24064, "asa": 17306, "preparatory": 13485, "mm": 3461, "begin": 4088, "revolver": 17863, "[unused158]": 163, "[unused699]": 704, "arises": 18653, "mode": 5549, "[unused335]": 340, "fresno": 20840, "spent": 2985, "donaldson": 23164, "tap": 11112, "column": 5930, "mall": 6670, "##_": 29638, "[unused722]": 727, "##48": 18139, "randomly": 18154, "##\u1d9c": 30046, "bolt": 10053, "bahamas": 17094, "arboretum": 25197, "##\u4e00": 30266, "770": 29065, "kc": 21117, "hair": 2606, "booklet": 19271, "individual": 3265, "[unused14]": 15, "##crats": 23423, "identical": 7235, "workshops": 9656, "elvis": 12280, "predictions": 20932, "compose": 17202, "include": 2421, "kerman": 24500, "voss": 24878, "and": 1998, "explores": 15102, "kentucky": 5612, "##pine": 19265, "mario": 7986, "borg": 28709, "newsletter": 17178, "christensen": 24189, "gameplay": 11247, "2011": 2249, "liza": 20503, "premature": 21371, "##ilation": 29545, "it": 2009, "serpent": 16517, "poised": 22303, "##ration": 8156, "vodka": 21092, "warring": 28509, "##tsu": 10422, "conservation": 5680, "hodgson": 26107, "kelsey": 21004, "missed": 4771, "[unused500]": 505, "premio": 23031, "belongings": 20033, "bedford": 12003, "witnessing": 24740, "laps": 10876, "dried": 9550, "scotia": 9676, "328": 25256, "tempest": 22553, "##zak": 20685, "aggregator": 24089, "relatives": 9064, "instincts": 16160, "dimensional": 8789, "severn": 24753, "dissertation": 14481, "danced": 10948, "wi": 15536, "unless": 4983, "##cular": 15431, "osman": 28609, "females": 3801, "mick": 10872, "walk": 3328, "residents": 3901, "##drik": 28730, "ignores": 26663, "detailing": 17555, "envoy": 19918, "\u0e2a": 1420, "diagnostic": 16474, "rosenberg": 21069, "es": 9686, "##\u30de": 30249, "nobody": 6343, "wilbur": 26151, "remake": 12661, "fetal": 25972, "preoccupied": 23962, "[unused273]": 278, "##\u10d3": 29977, "kilkenny": 17131, "bowling": 9116, "##nl": 20554, "##uche": 19140, "\u4e09": 1741, "researching": 20059, "pursuant": 27081, "versailles": 18346, "kimball": 26659, "cruisers": 16722, "doubling": 19383, "auditory": 28042, "##outs": 12166, "mummy": 22788, "1898": 6068, "josiah": 24461, "opponent": 7116, "poorer": 27196, "[unused625]": 630, "##ctum": 27272, "##gor": 20255, "dec": 11703, "assuming": 10262, "\u4f50": 1764, "panda": 25462, "07": 5718, "[unused54]": 55, "##rating": 15172, "methodist": 8938, "reasoned": 24557, "##lio": 12798, "informs": 15670, "diving": 9404, "snow": 4586, "ultimatum": 29227, "glossy": 19504, "1931": 4739, "rb": 21144, "violate": 23640, "conical": 24750, "harta": 26283, "embarrassed": 10339, "nodes": 14164, "ruler": 7786, "reich": 14365, "werner": 14121, "docking": 25776, "qin": 19781, "##dder": 20791, "##ducted": 29510, "whiskey": 13803, "plastics": 26166, "reconciled": 28348, "##king": 6834, "sensible": 21082, "powerhouse": 24006, "spawning": 27957, "##agh": 17988, "examinations": 14912, "##bee": 11306, "forthcoming": 16875, "##bari": 25990, "##unda": 18426, "sort": 4066, "lands": 4915, "verandah": 26153, "[unused663]": 668, "baked": 17776, "newly": 4397, "skiing": 12701, "terrorists": 15554, "tung": 27079, "youtube": 7858, "associates": 9228, "settler": 18556, "goose": 13020, "garment": 19002, "wikipedia": 16948, "voting": 6830, "punches": 17957, "prisons": 15996, "1824": 11617, "inflation": 14200, "abigail": 15983, "\u0448": 1203, "substrates": 23725, "drums": 3846, "paranoia": 27890, "1662": 25909, "[unused648]": 653, "sergeant": 6722, "deer": 8448, "\u02c8": 1149, "captained": 16041, "##glass": 15621, "##rval": 26585, "##chule": 20269, "in": 1999, "integrity": 11109, "translates": 16315, "taipei": 14004, "tehran": 13503, "throbbed": 27714, "1811": 13086, "squared": 19942, "letter": 3661, "loved": 3866, "orphans": 21478, "charlie": 4918, "ticket": 7281, "retain": 9279, "##cino": 21081, "persuade": 13984, "erica": 19295, "reefs": 21484, "##section": 29015, "261": 24441, "petersburg": 8062, "executive": 3237, "fiddle": 15888, "fashion": 4827, "mosques": 21922, "##ardo": 24649, "rattling": 26347, "biennale": 21140, "cigar": 19135, "request": 5227, "pounder": 20091, "##meister": 28824, "beverly": 12218, "combines": 13585, "strung": 23509, "throwing": 6886, "##\u0445": 29750, "johan": 13093, "##nett": 15361, "relations": 4262, "emancipation": 22656, "destructive": 15615, "##puri": 24661, "cab": 9298, "bellamy": 25544, "timeline": 17060, "##erated": 16848, "townships": 13991, "lac": 18749, "suddenly": 3402, "[unused299]": 304, "hunter": 4477, "accession": 16993, "earle": 23888, "##iot": 25185, "titles": 4486, "colder": 21399, "werewolf": 12797, "piper": 11939, "##xon": 22500, "clyde": 12085, "combustion": 16513, "##ih": 19190, "##\u03c0": 29731, "terminus": 7342, "more": 2062, "humble": 15716, "symbol": 6454, "95": 5345, "##e": 2063, "trophies": 22236, "tyne": 17742, "encore": 19493, "[unused123]": 128, "!": 999, "##nable": 22966, "closer": 3553, "rejection": 13893, "surroundings": 11301, "##naut": 24619, "centennial": 15483, "nomination": 6488, "spying": 22624, "##\u30b9": 30233, "slavic": 13838, "nana": 17810, "stumbling": 19730, "within": 2306, "civilized": 25825, "##rist": 15061, "metres": 3620, "ronan": 18633, "##\u20b1": 30103, "disappear": 10436, "macedonian": 13037, "transaction": 12598, "##odon": 28716, "##lars": 28695, "calcutta": 13419, "surfaces": 9972, "reckon": 29072, "tabitha": 21581, "##gau": 20420, "##utable": 23056, "##ahu": 21463, "jewels": 15565, "spoiled": 19582, "resort": 7001, "mba": 15038, "plumbing": 27902, "daring": 15236, "brig": 16908, "smile": 2868, "director": 2472, "cubs": 12469, "selection": 4989, "neighbourhood": 10971, "state": 2110, "##usly": 27191, "conner": 17639, "passengers": 5467, "remind": 10825, "##\u30c4": 30238, "##\u1172": 30016, "pc": 7473, "crawled": 12425, "absurd": 18691, "attaining": 26615, "kimberley": 25004, "##copic": 26461, "\u211d": 1579, "mayo": 14415, "##29": 24594, "ram": 8223, "collections": 6407, "offshore": 12195, "1798": 13036, "87": 6584, "copying": 24731, "##rka": 22379, "##hedral": 27310, "gesturing": 22317, "representing": 5052, "iona": 22347, "command": 3094, "shen": 21882, "dogg": 28844, "spoon": 15642, "##hae": 25293, "halfway": 8576, "diane": 12082, "algeria": 11337, "##crat": 23185, "jeopardy": 26604, "miocene": 26926, "##fight": 20450, "otter": 22279, "metadata": 27425, "mortals": 23844, "##vel": 15985, "35th": 20198, "petty": 11612, "jared": 8334, "beheaded": 28923, "racer": 14878, "trans": 9099, "eng": 25540, "ethiopian": 15101, "sucking": 13475, "sears": 18493, "revisited": 24354, "[unused528]": 533, "argue": 7475, "grabbing": 9775, "exclaimed": 12713, "gerry": 14926, "rhineland": 21640, "[unused195]": 200, "evolve": 19852, "cartridge": 15110, "##duced": 28901, "##rring": 18807, "sequential": 25582, "costumes": 12703, "little": 2210, "wal": 24547, "sexuality": 13798, "edge": 3341, "cantonese": 22241, "ethnic": 5636, "smack": 21526, "##kos": 15710, "torque": 15894, "hagen": 24047, "emery": 24294, "##filtration": 28674, "corey": 18132, "mbe": 20301, "hardcover": 20990, "redemption": 18434, "sunday": 4465, "scenery": 17363, "idols": 24438, "##nty": 29405, "scan": 13594, "paterson": 19162, "[unused259]": 264, "moritz": 28461, "1652": 28853, "\u7ae0": 1932, "##olar": 19478, "##iko": 12676, "contrasts": 23347, "emerson": 12628, "prevailing": 19283, "synonym": 10675, "terrible": 6659, "reggie": 17963, "dea": 26709, "freaking": 13847, "bushes": 14568, "\u028c": 1134, "clumsy": 22902, "[unused982]": 987, "[unused507]": 512, "trilogy": 11544, "vichy": 29177, "piston": 16733, "##ivism": 22486, "presbyterian": 10133, "##\u300c": 30167, "##ins": 7076, "rosenthal": 29062, "start": 2707, "##cea": 21456, "reflects": 11138, "yanking": 25716, "aramaic": 28934, "togo": 23588, "1850": 7973, "##tary": 18219, "[unused15]": 16, "candace": 22905, "1863": 6899, "colleges": 6667, "exercising": 28428, "apology": 12480, "##icular": 21412, "twitter": 10474, "darius": 14861, "##ax": 8528, "avoids": 26777, "coalition": 6056, "sailing": 8354, "encryption": 21999, "irrigation": 12442, "mcconnell": 28514, "objections": 17304, "neighbouring": 9632, "timing": 10984, "##chin": 17231, "payload": 18093, "groin": 20092, "mansion": 7330, "casimir": 24701, "ingrid": 22093, "myths": 17218, "##tory": 7062, "##cer": 17119, "##ock": 7432, "katy": 17870, "important": 2590, "filling": 8110, "discarded": 15105, "[unused770]": 775, "smacked": 19203, "hitchcock": 19625, "1988": 2997, "##gren": 13565, "jesuits": 20297, "blind": 6397, "participate": 5589, "112": 11176, "squeak": 29552, "precipitation": 13511, "settles": 27221, "##ish": 4509, "psychiatric": 13691, "##\u026c": 29687, "exact": 6635, "rep": 16360, "governorate": 15162, "holt": 12621, "edmond": 21773, "uv": 23068, "bodily": 20445, "##hman": 13890, "[unused926]": 931, "74": 6356, "getting": 2893, "triangle": 9546, "mood": 6888, "##ple": 10814, "pet": 9004, "refurbishment": 24478, "##raphy": 26228, "allegations": 9989, "tracked": 12808, "inhibitor": 24054, "##ogist": 22522, "thoughtful": 16465, "bids": 20723, "susan": 6294, "mls": 16287, "murmur": 20227, "##rdan": 26992, "##rize": 25709, "abnormalities": 28828, "##an": 2319, "##sit": 28032, "penetrate": 19136, "recapture": 27639, "##\u060c": 29814, "hopper": 20517, "eastwood": 24201, "##icing": 23553, "##\u30c8": 30240, "##mt": 20492, "##jar": 16084, "##\u5bbf": 30352, "ch": 10381, "runner": 5479, "ames": 19900, "courtship": 28592, "lowered": 6668, "gould": 14913, "##ness": 2791, "soviet": 3354, "##\u2097": 30095, "[unused217]": 222, "pius": 14363, "##cend": 23865, "couch": 6411, "assist": 6509, "soldier": 5268, "locus": 25206, "##\u30c3": 30237, "arrangements": 7565, "paris": 3000, "isolated": 7275, "translated": 5421, "halle": 19769, "##\u3072": 30199, "curls": 14484, "[unused454]": 459, "christ": 4828, "dyer": 23494, "[unused52]": 53, "76": 6146, "communes": 16569, "[unused649]": 654, "##ignant": 25593, "even": 2130, "aidan": 12643, "span": 8487, "perth": 9300, "por": 18499, "salazar": 25315, "horsemen": 25431, "patented": 16719, "fill": 6039, "##sons": 23345, "[unused872]": 877, "gurney": 25061, "crossbow": 28692, "pip": 28315, "conclusions": 15306, "##cliffe": 18115, "supporting": 4637, "enroll": 25612, "liquids": 26820, "##na": 2532, "adjoining": 13562, "##gues": 22967, "portraits": 9668, "[unused647]": 652, "kali": 19924, "escorting": 23831, "harmless": 19741, "vow": 19076, "##aman": 23093, "ras": 20710, "[unused636]": 641, "##uppe": 29547, "recycling": 17874, "tapes": 13324, "guarding": 17019, "m\u00b3": 14241, "therese": 25598, "tongues": 19677, "portal": 9445, "##\u2081": 11871, "related": 3141, "january": 2254, "relationships": 6550, "les": 4649, "noting": 9073, "wessex": 27886, "produced": 2550, "turnout": 15512, "bizarre": 13576, "substantial": 6937, "cuba": 7394, "vivo": 24269, "image": 3746, "mikey": 25998, "tended": 11121, "nutrition": 14266, "egyptian": 6811, "bony": 22678, "powerplant": 19526, "boulders": 22177, "definitive": 15764, "gasped": 8535, "sends": 10255, "easter": 10957, "##ake": 13808, "##gur": 27390, "indefinite": 25617, "##\u062d": 29820, "cullen": 19925, "\u09b0": 1372, "ring": 3614, "\u5927": 1810, "prophets": 23172, "maitland": 25511, "economical": 21791, "\u4fdd": 1766, "averages": 20185, "##ira": 7895, "anal": 20302, "dear": 6203, "##type": 13874, "proficiency": 26293, "pills": 15345, "\u0e1e": 1414, "lahore": 15036, "remotely": 19512, "##po": 6873, "dunn": 14145, "stanford": 8422, "moment": 2617, "spoken": 5287, "capcom": 26861, "richard": 2957, "edouard": 21627, "ked": 16135, "birch": 16421, "metacritic": 14476, "##lines": 12735, "xavier": 10062, "prelate": 26595, "affinity": 16730, "producers": 6443, "##ncies": 14767, "mans": 16042, "##shah": 25611, "correct": 6149, "thorpe": 20249, "sequencing": 24558, "fixing": 15887, "1922": 4798, "sherman": 11011, "##dya": 25838, "difficulty": 7669, "hesitant": 20221, "ry": 29431, "##\u96c4": 30500, "##qing": 19784, "patrice": 29527, "lived": 2973, "fortress": 7841, "weimar": 20695, "alerted": 22333, "contest": 5049, "rumbling": 26670, "1841": 9840, "harmful": 17631, "##fly": 14151, "##lco": 22499, "oppression": 20489, "horribly": 27762, "squinting": 29156, "twice": 3807, "paralyzed": 22348, "information": 2592, "sheldon": 19369, "[unused457]": 462, "fix": 8081, "[unused271]": 276, "role": 2535, "1667": 27643, "sapphire": 21965, "walks": 7365, "specification": 12827, "weathered": 28445, "downtown": 5116, "devastation": 25594, "deploy": 21296, "collins": 6868, "[unused910]": 915, "break": 3338, "special": 2569, "stallion": 19122, "fife": 20537, "slightly": 3621, "ominous": 23504, "formulation": 20219, "december": 2285, "\u0629": 1272, "\u0924": 1323, "famed": 15607, "audible": 19525, "##rcus": 29006, "##ion": 3258, "recalled": 7383, "[unused906]": 911, "rulers": 11117, "1834": 10700, "\u30a6": 1696, "registration": 8819, "alcohol": 6544, "\u2500": 1615, "##erine": 24226, "trio": 7146, "kansas": 5111, "probability": 9723, "equator": 26640, "##ups": 22264, "garrison": 8427, "huff": 21301, "trondheim": 26331, "[unused339]": 344, "mas": 16137, "##nia": 6200, "removal": 8208, "excel": 24970, "konstantin": 23989, "normally": 5373, "conde": 24707, "##runa": 26605, "stalls": 19753, "footprints": 24629, "accomplish": 14570, "impressive": 8052, "\u06d2": 1310, "baltimore": 6222, "##sl": 14540, "maid": 10850, "##islav": 19834, "###": 29614, "kensington": 17775, "murmured": 7152, "\u09a4": 1362, "naacp": 26155, "linda": 8507, "confidently": 28415, "[unused986]": 991, "attached": 4987, "eligible": 7792, "wants": 4122, "dinner": 4596, "appalachian": 19682, "nurses": 11500, "stadion": 20756, "taxes": 7773, "##lining": 16992, "italy": 3304, "exit": 6164, "consuming": 15077, "310": 17196, "apple": 6207, "committed": 5462, "elders": 13376, "venture": 6957, "##tura": 27431, "organize": 10939, "daniels": 13196, "humanist": 24464, "cain": 11557, "agrarian": 23226, "whirled": 17097, "##\u05e2": 29805, "jennings": 14103, "##ndo": 15482, "debt": 7016, "[unused438]": 443, "supermarket": 17006, "\u8033": 1937, "##lah": 14431, "1300": 19527, "stills": 26105, "intends": 18754, "according": 2429, "interceptions": 18387, "eton": 21687, "##sson": 7092, "identifying": 12151, "develop": 4503, "cursed": 10678, "[unused384]": 389, "\u5742": 1803, "painfully": 16267, "suspected": 6878, "intermittent": 23852, "screen": 3898, "##rned": 21119, "exports": 14338, "##plane": 11751, "jumped": 5598, "gymnast": 25055, "[unused221]": 226, "knighted": 19572, "curly": 17546, "worrying": 15366, "nigerian": 11884, "balloons": 22163, "\u5e7f": 1842, "pamphlets": 24752, "slit": 18036, "sheridan": 13243, "wake": 5256, "lining": 14834, "lest": 26693, "foremost": 16097, "wynn": 25328, "70th": 26934, "effectiveness": 12353, "##yat": 26139, "\u201e": 1525, "changing": 5278, "denny": 14465, "speculated": 15520, "simulcast": 20525, "depictions": 20818, "##eft": 29218, "starvation": 22611, "##nas": 11649, "tallinn": 21169, "##hara": 11077, "competing": 6637, "moonlight": 11986, "tasked": 13487, "##stad": 16917, "48": 4466, "mind": 2568, "##upt": 29441, "##buck": 24204, "qualifying": 6042, "rape": 9040, "quinlan": 28451, "recited": 24843, "bonuses": 29563, "\u30a4": 1695, "older": 3080, "clair": 17936, "tipped": 11182, "washington": 2899, "existence": 4598, "[unused432]": 437, "##ional": 19301, "grange": 18203, "obesity": 24552, "[unused899]": 904, "janeiro": 11497, "praising": 15838, "##lu": 7630, "smoke": 5610, "awhile": 19511, "crop": 10416, "floral": 18686, "discover": 7523, "##heard": 26362, "##ometer": 18721, "york": 2259, "##olin": 18861, "##cor": 27108, "monaco": 14497, "navigation": 9163, "rana": 22175, "##ille": 10484, "mixed": 3816, "##tori": 29469, "chalmers": 29069, "poverty": 5635, "##rini": 22612, "vicente": 17280, "steppe": 29096, "baths": 19692, "##wley": 20609, "triumphant": 25251, "[unused493]": 498, "soldiers": 3548, "persist": 29486, "##bered": 22408, "greg": 6754, "amounted": 18779, "flaming": 19091, "##quette": 29416, "[unused76]": 77, "olive": 9724, "phrase": 7655, "indicate": 5769, "modified": 6310, "horseshoe": 23449, "caucasian": 23368, "##me": 4168, "directorate": 13634, "[unused453]": 458, "##ples": 21112, "prayed": 14283, "lifetime": 6480, "greenwich": 13861, "wits": 25433, "oslo": 9977, "accommodated": 28959, "swallowing": 18468, "shepherd": 11133, "avant": 14815, "297": 27502, "tower": 3578, "hart": 7530, "uruguay": 11724, "turf": 14585, "buckled": 26368, "program": 2565, "##flies": 24019, "brewster": 23009, "implementing": 14972, "convenient": 14057, "imitation": 20017, "##ested": 17944, "mountainous": 14897, "repeating": 15192, "discovering": 13648, "\u90e8": 1960, "##ratic": 23671, "\u5c0f": 1829, "chemist": 15535, "howl": 22912, "file": 5371, "needed": 2734, "ballast": 28030, "participation": 6577, "moor": 16808, "singular": 13048, "90s": 17233, "##per": 4842, "allowance": 21447, "whore": 17219, "misunderstood": 28947, "anson": 25435, "recognition": 5038, "plotting": 20699, "nile": 15179, "##buro": 23670, "enclosed": 10837, "curt": 20099, "witchcraft": 21599, "248": 24568, "##hardt": 13778, "boca": 22765, "coincidentally": 27542, "blonde": 9081, "uttered": 20947, "modernized": 27140, "##ir": 4313, "airborne": 10519, "cholera": 25916, "liszt": 26273, "\u11af": 1486, "\u3009": 1638, "ballet": 7250, "##ters": 7747, "contestants": 10584, "thin": 4857, "hammond": 11309, "potion": 26722, "##\u52a0": 30305, "arbitrary": 15275, "miners": 11257, "lissa": 20244, "saints": 6586, "likewise": 10655, "chairman": 3472, "##0": 2692, "european": 2647, "metal": 3384, "reassured": 26350, "controversies": 25962, "slide": 7358, "headlined": 25214, "endeavor": 23855, "##\u694a": 30409, "responds": 16412, "hendricks": 28895, "[unused615]": 620, "[unused233]": 238, "##\u9673": 30498, "aide": 14895, "cupboard": 25337, "reflections": 16055, "##vant": 18941, "##naire": 20589, "validation": 27354, "nh": 18699, "agitation": 22356, "tentative": 19943, "hydra": 26018, "hostel": 21071, "canopy": 14582, "greenish": 23753, "[unused168]": 173, "nick": 4172, "\u0252": 1111, "##tion": 3508, "hydrogen": 9732, "##jic": 25008, "trough": 23389, "colour": 6120, "postdoctoral": 29272, "connolly": 21018, "##vent": 15338, "fairs": 21947, "defences": 16828, "jaw": 5730, "severe": 5729, "mortar": 14335, "capt": 14408, "attracts": 17771, "perch": 21836, "authorised": 19256, "gables": 27008, "replies": 14054, "##lized": 28931, "benin": 21164, "##\u00b6": 29660, "squeezing": 15328, "currie": 20667, "skirt": 9764, "subdivided": 15369, "clarissa": 25260, "imagined": 8078, "isle": 8842, "isabel": 11648, "hiring": 14763, "priesthood": 17911, "aberdeen": 12080, "warns": 19428, "lu": 11320, "preparing": 8225, "turbulence": 29083, "thinkers": 24762, "galactic": 21375, "altering": 22552, "plainly": 24250, "##buch": 25987, "##ema": 14545, "coil": 17085, "nods": 11232, "lowland": 15234, "##oting": 20656, "reasons": 4436, "hiroshima": 20168, "vhs": 17550, "durham": 9296, "rudolph": 18466, "[unused127]": 132, "ravens": 17272, "compositions": 9265, "returned": 2513, "##brates": 25258, "proponents": 20401, "lumpur": 17761, "g": 1043, "successively": 24288, "##apes": 29040, "basics": 24078, "hoisted": 27269, "brno": 28634, "push": 5245, "onslaught": 28644, "declare": 13520, "##the": 10760, "allies": 6956, "[unused912]": 917, "darker": 9904, "recruiting": 14357, "5": 1019, "##lights": 15733, "hd": 10751, "stone": 2962, "frail": 25737, "xml": 20950, "abolitionist": 29554, "microscopic": 26396, "##haw": 14238, "declaration": 8170, "durban": 25040, "automobile": 9935, "decomposition": 22511, "earlier": 3041, "so": 2061, "vibrated": 27801, "pursue": 7323, "finland": 6435, "breed": 8843, "borders": 6645, "hidden": 5023, "doe": 18629, "##orous": 25373, "##henko": 19767, "bangor": 21895, "asking": 4851, "ave": 13642, "[unused549]": 554, "##lovic": 29356, "30": 2382, "\u3061": 1662, "key": 3145, "elle": 15317, "speculative": 23250, "bay": 3016, "##phy": 21281, "redevelopment": 15582, "innocence": 12660, "martini": 24480, "29": 2756, "greta": 26111, "elizabeth": 3870, "bourbon": 15477, "copenhagen": 9664, "blur": 14819, "drained": 11055, "##esses": 26636, "[unused474]": 479, "dia": 22939, "##\u2088": 30084, "receiving": 4909, "erskine": 27139, "##asco": 28187, "##nged": 21558, "##ley": 3051, "expectation": 17626, "##oder": 27381, "preserve": 7969, "clive": 14675, "lose": 4558, "shake": 6073, "transmit": 19818, "##hong": 19991, "silly": 10021, "reply": 7514, "splash": 17624, "spit": 13183, "manga": 8952, "joachim": 17286, "lobby": 9568, "vicinity": 9884, "[unused979]": 984, "stalled": 20659, "haydn": 25595, "##tops": 25181, "1726": 28342, "races": 3837, "romanian": 7056, "[unused80]": 81, "crate": 27297, "syntax": 20231, "lazy": 13971, "swung": 7671, "found": 2179, "fit": 4906, "broken": 3714, "##xide": 19491, "sparsely": 24961, "steamed": 21734, "yang": 8675, "\u4e16": 1745, "cnn": 13229, "horrific": 23512, "begs": 27591, "energies": 19320, "grabs": 13273, "disrupted": 20275, "nicely": 19957, "somebody": 8307, "vogel": 27063, "exited": 15284, "teresa": 12409, "justices": 19867, "sunken": 23470, "hereford": 21136, "hasn": 8440, "##fle": 21031, "inviting": 15085, "loss": 3279, "packing": 14743, "kei": 26679, "##kian": 28545, "karen": 8129, "##break": 23890, "43rd": 25747, "mix": 4666, "revolution": 4329, "dryly": 20825, "straight": 3442, "frowning": 14587, "##dun": 27584, "mustered": 21900, "corrected": 13371, "import": 12324, "##lab": 20470, "[unused733]": 738, "184": 19681, "zhou": 14367, "##aceous": 25560, "alphabet": 12440, "shielding": 25553, "##\u0646": 15915, "\u1112": 1469, "joke": 8257, "##bright": 26614, "##rod": 14127, "belgian": 6995, "##\u0628\u0627\u062f": 25799, "various": 2536, "antibody": 27781, "dictator": 21237, "apartments": 9620, "##\u65e5": 30390, "carson": 9806, "##kle": 19099, "af": 21358, "##lt": 7096, "[unused601]": 606, "increase": 3623, "garner": 18661, "marshall": 5832, "engulfed": 24692, "greyhound": 21220, "costing": 22173, "stresses": 23253, "kellan": 19697, "pacific": 3534, "bypassed": 27539, "consultation": 16053, "destroyer": 9799, "##ations": 10708, "proven": 10003, "##\u6c0f": 30417, "oaks": 13396, "marissa": 22767, "sounds": 4165, "violence": 4808, "guerrero": 16938, "apps": 18726, "##space": 23058, "failure": 4945, "strengths": 20828, "##riation": 18769, "pursuit": 8463, "[unused727]": 732, "violent": 6355, "gangs": 18542, "trusting": 19836, "chopra": 28826, "inline": 23881, "##hh": 23644, "bolivia": 11645, "copied": 15826, "figuring": 23218, "bret": 25626, "kata": 29354, "font": 15489, "mobility": 12969, "greenhouse": 16635, "rector": 10935, "cis": 20199, "##osis": 12650, "##\u2086": 30082, "barber": 13362, "twitch": 19435, "eats": 20323, "##gee": 18372, "coastal": 5780, "choice": 3601, "happened": 3047, "retired": 3394, "devastating": 14886, "duchess": 11017, "##do": 3527, "encompassed": 24058, "venetian": 15510, "##\u30e9": 30257, "##otho": 29288, "sensations": 21378, "kiara": 28870, "##\u6709": 30399, "##voking": 22776, "regret": 9038, "margin": 7785, "##lke": 28143, "##wich": 12414, "##\u05d9": 29796, "rca": 12639, "##yl": 8516, "vista": 13005, "saturdays": 18860, "swinging": 11820, "archived": 9749, "savior": 24859, "bridgeport": 27986, "crises": 25332, "magnetic": 8060, "lighted": 26390, "aerospace": 13395, "gloom": 24067, "##ela": 10581, "fa": 6904, "brigham": 22727, "##\u3089": 30211, "carry": 4287, "hangul": 19051, "##eiro": 17166, "township": 3545, "intentional": 21249, "2000s": 8876, "drains": 18916, "sevilla": 29363, "calabria": 29430, "1843": 10075, "hunting": 5933, "##rina": 11796, "##\u5289": 30303, "approximation": 20167, "ve": 2310, "colombia": 7379, "##gging": 12588, "##orted": 15613, "##vez": 26132, "[unused517]": 522, "permitted": 7936, "glittering": 20332, "francesca": 15409, "corvette": 22687, "mn": 24098, "ashamed": 14984, "maurice": 7994, "wiener": 25072, "[unused586]": 591, "ben": 3841, "recalling": 21195, "clawed": 22544, "uta": 28981, "traditional": 3151, "nouns": 19211, "achievements": 10106, "commemorative": 17524, "east": 2264, "ringo": 25589, "joaquin": 16877, "johns": 11545, "byte": 24880, "dune": 21643, "suburb": 7575, "wheelchair": 13204, "##uddin": 17375, "292": 25797, "##rbin": 27366, "##rvis": 29074, "grooves": 25880, "convert": 10463, "utilization": 27891, "thrusts": 25842, "lucky": 5341, "parasite": 21198, "geoffrey": 11023, "hum": 14910, "royale": 24483, "study": 2817, "conjecture": 22647, "income": 3318, "sheffield": 8533, "grouped": 15131, "jessie": 10934, "playfully": 22608, "[unused90]": 91, "ci": 25022, "baffled": 29088, "rails": 15168, "laughing": 5870, "gupta": 20512, "##lde": 17920, "hoped": 5113, "weekdays": 19759, "becca": 22140, "canteen": 26449, "covert": 19813, "williamson": 14333, "godfather": 23834, "wind": 3612, "outline": 12685, "resemble": 13014, "cutler": 24975, "branched": 21648, "incidents": 10444, "gdansk": 21942, "longer": 2936, "sacrament": 28958, "geographically": 20969, "studying": 5702, "jesus": 4441, "##lane": 20644, "durable": 25634, "##ucible": 21104, "saudi": 8174, "spells": 11750, "latham": 28737, "antioch": 19078, "teasing": 12216, "##kled": 19859, "1643": 25534, "underwent": 9601, "##ata": 6790, "\u2014": 1517, "freeing": 22198, "merging": 16468, "eaton": 17642, "ferrari": 13632, "sprinter": 19938, "##yala": 28617, "1805": 13126, "##ina": 3981, "raf": 7148, "##duction": 16256, "envy": 21103, "photographed": 16164, "complexes": 15420, "intruder": 22841, "##rift": 16338, "juan": 5348, "medicines": 20233, "[unused11]": 12, "killing": 4288, "mozart": 13177, "1540": 27536, "jug": 26536, "##ylus": 18871, "\u5fd7": 1851, "board": 2604, "0": 1014, "architect": 4944, "lgbt": 12010, "verde": 16184, "shack": 22200, "server": 8241, "lancaster": 10237, "akira": 21616, "##rook": 25399, "miracles": 17861, "sit": 4133, "scuba": 28651, "266": 25162, "##dra": 7265, "indicted": 21801, "steady": 6706, "scranton": 26123, "##witz": 15362, "mostly": 3262, "##\u79cb": 30455, "maru": 26280, "rounding": 26939, "vampires": 6144, "seoul": 10884, "\u6a39": 1884, "portable": 12109, "sensual": 18753, "experts": 8519, "entertain": 20432, "kurt": 9679, "\u2261": 1607, "leans": 12671, "partisans": 20762, "exchequer": 28889, "ipswich": 15435, "divorced": 9196, "cry": 5390, "flowering": 10902, "mathematics": 5597, "fraternity": 13577, "wishing": 10261, "rat": 9350, "multiplied": 28608, "\u0982": 1346, "\u667a": 1869, "perspective": 7339, "[unused551]": 556, "##ssen": 14416, "nodding": 11863, "rammed": 27653, "la": 2474, "guided": 8546, "caressed": 21473, "cell": 3526, "1902": 5774, "carrot": 25659, "favors": 21191, "doubt": 4797, "britain": 3725, "##eni": 18595, "targeting": 14126, "fisher": 8731, "hectare": 20406, "secrets": 7800, "lc": 29215, "20s": 27074, "lame": 20342, "detective": 6317, "[unused702]": 707, "looting": 29367, "##eering": 20550, "rhythmic": 14797, "protagonist": 10191, "demos": 18267, "caliber": 15977, "##\u043e\u0432\u0438\u0447": 16198, "toe": 11756, "an": 2019, "yielding": 21336, "identified": 4453, "accidental": 17128, "cbc": 13581, "##mun": 23041, "##rations": 28893, "syn": 19962, "collecting": 9334, "medalist": 12968, "contribution": 6691, "cardiovascular": 22935, "v8": 15754, "demand": 5157, "suggested": 4081, "thirteenth": 14725, "variant": 8349, "luce": 19913, "buffer": 17698, "taiwanese": 16539, "higgins": 13466, "mathias": 20494, "promotes": 14067, "[unused207]": 212, "4000": 20143, "essence": 11305, "apocalyptic": 27660, "##hort": 27794, "lung": 11192, "eventually": 2776, "adequately": 23613, "ended": 3092, "sights": 15925, "middlesex": 13654, "##lai": 19771, "neumann": 22860, "denton": 23906, "joey": 9558, "lovely": 8403, "##rogated": 26565, "##cation": 10719, "socio": 17522, "238": 22030, "##uation": 14505, "##ocks": 25384, "granddaughter": 12787, "[unused236]": 241, "forgive": 9641, "##dhar": 25632, "stool": 14708, "##eses": 23072, "response": 3433, "boardwalk": 29496, "rashid": 22080, "submitted": 7864, "baptised": 28798, "gunpowder": 22220, "301": 19123, "chris": 3782, "mbc": 27262, "##xley": 20959, "streaming": 11058, "277": 25578, "occupying": 13992, "maxi": 21510, "interviewing": 27805, "##rug": 26549, "retaliation": 18695, "@": 1030, "737": 22061, "patriots": 11579, "beyond": 3458, "battled": 19787, "anglican": 9437, "[unused657]": 662, "##ulsive": 23004, "gan": 25957, "offs": 12446, "##oides": 25064, "##\u0e19": 29949, "finn": 9303, "##law": 14919, "##alis": 13911, "minister": 2704, "lester": 14131, "dracula": 18500, "amnesia": 29222, "underwear": 14236, "torino": 24737, "##mmy": 18879, "costello": 21015, "dining": 7759, "1630": 24994, "##\u7a7a": 30456, "harm": 7386, "doctors": 7435, "conquer": 16152, "numerical": 15973, "cattle": 7125, "residential": 5647, "reformed": 9114, "beaver": 13570, "dental": 11394, "##nath": 16207, "expressive": 22570, "redskins": 17461, "placing": 6885, "harder": 6211, "[unused87]": 88, "cho": 16480, "joo": 28576, "##uman": 19042, "tunes": 13281, "\u0142odz": 17814, "##ire": 7442, "##cial": 13247, "intelligent": 9414, "interests": 5426, "[unused215]": 220, "241": 22343, "daze": 28918, "\u093f": 1341, "chicks": 20649, "carbon": 6351, "##sboro": 25623, "meadows": 13524, "assignments": 14799, "lillian": 19344, "[unused108]": 113, "taekwondo": 28529, "think": 2228, "tunisia": 13437, "instructors": 19922, "harold": 7157, "floats": 24885, "195": 17317, "##has": 14949, "pilgrimage": 14741, "##iating": 15370, "novice": 23131, "##ron": 4948, "socialism": 14649, "footsteps": 9717, "\u2207": 1595, "ellis": 8547, "advocating": 20324, "solicitor": 15468, "##ager": 17325, "extremes": 28800, "##mble": 19661, "crusade": 16282, "##ener": 24454, "[unused167]": 172, "26th": 14935, "cedric": 26170, "reelected": 20847, "ramsey": 15092, "vascular": 21449, "until": 2127, "profound": 13769, "##ts": 3215, "sting": 12072, "surround": 15161, "mates": 14711, "profiles": 17879, "pledge": 16393, "grips": 24758, "##\u06c1": 29845, "bag": 4524, "nine": 3157, "obsession": 17418, "weigh": 17042, "decker": 20946, "bs": 18667, "c": 1039, "nyc": 16392, "aspect": 7814, "jewelry": 11912, "define": 9375, "maintaining": 8498, "##ay": 4710, "##lan": 5802, "arsenic": 29596, "invading": 17657, "##lei": 23057, "conducted": 4146, "booked": 17414, "jillian": 27286, "delle": 24121, "\u0638": 1287, "horn": 7109, "hints": 20385, "tapestry": 25213, "translator": 11403, "##bh": 23706, "secondary": 3905, "?": 1029, "cia": 9915, "##mist": 23738, "forest": 3224, "intercepted": 16618, "macbeth": 25182, "maia": 23478, "kills": 8563, "nat": 14085, "explosive": 11355, "noticeable": 17725, "##kee": 20553, "##a": 2050, "tightened": 8371, "childless": 26983, "semifinal": 16797, "wealth": 7177, "##emon": 26941, "exactly": 3599, "ideally": 28946, "underside": 17313, "emily": 6253, "##\u05d8": 29795, "temper": 12178, "tornado": 11352, "parisian": 24262, "alright": 10303, "lump": 15116, "##wil": 29602, "forums": 21415, "##nu": 11231, "maestro": 25270, "##aba": 19736, "gear": 6718, "duchy": 11068, "specializes": 16997, "clara": 10254, "##\u3088": 30210, "##rer": 14544, "##ade": 9648, "analysis": 4106, "initials": 20381, "tract": 12859, "wheels": 7787, "weston": 12755, "##fleet": 27657, "implement": 10408, "pathway": 12732, "ryan": 4575, "regulated": 12222, "raceway": 23018, "pioneering": 13280, "terrified": 10215, "warily": 23625, "1830s": 20400, "joint": 4101, "quantities": 12450, "hopeless": 20625, "literacy": 8433, "angular": 16108, "##\u2113": 30105, "##\u00aa": 29653, "summary": 12654, "empires": 23560, "due": 2349, "gaped": 23832, "catfish": 23723, "investigators": 14766, "##ive": 3512, "prohibition": 13574, "spartak": 28560, "##usion": 14499, "##zation": 9276, "steamer": 18027, "pairs": 7689, "##mans": 15154, "ain": 7110, "dfb": 28894, "provincial": 4992, "sheikh": 12840, "brunswick": 9192, "angelina": 23847, "[unused713]": 718, "36th": 21460, "##\u5b80": 30344, "gill": 12267, "mira": 18062, "melville": 20154, "emphasizing": 22671, "needing": 11303, "##posed": 19155, "cleaner": 20133, "rancho": 18123, "linguistic": 12158, "##cking": 23177, "##mission": 25481, "securing": 12329, "karim": 25461, "nutritional": 28268, "saharan": 24505, "padma": 23731, "classify": 26268, "1921": 4885, "[unused163]": 168, "##\u0f56": 29967, "obeyed": 22665, "earthquakes": 17932, "travelled": 7837, "##fm": 16715, "comprised": 11539, "willard": 19138, "grove": 7676, "##lor": 10626, "pounds": 7038, "oklahoma": 5858, "widowed": 22874, "##bu": 8569, "bahadur": 21715, "tenth": 7891, "gettysburg": 22577, "proposition": 14848, "rafael": 10999, "[unused583]": 588, "screw": 11224, "##cous": 27199, "##ave": 10696, "##imating": 22835, "smartphone": 26381, "suburbs": 9435, "consultant": 8930, "mundane": 24684, "inscription": 9315, "turin": 13667, "cobra": 16604, "##\u6c34": 30419, "waist": 5808, "[unused276]": 281, "##entes": 26933, "prices": 7597, "musik": 28076, "announcements": 25674, "##wal": 13476, "sacrifices": 18502, "##\u51fa": 30300, "marketing": 5821, "\u0dcf": 1408, "##illo": 10486, "palestinians": 21524, "automated": 12978, "persian": 4723, "##isms": 22556, "cut": 3013, "##ute": 10421, "compares": 22963, "mixer": 23228, "jiangsu": 28091, "fifteenth": 16249, "firmly": 7933, "\u062a": 1273, "##personal": 28823, "development": 2458, "uss": 7234, "mainz": 19876, "port": 3417, "localities": 19664, "##bic": 13592, "mcgrath": 23220, "limitation": 22718, "answer": 3437, "feeling": 3110, "buyer": 17634, "creepy": 17109, "series": 2186, "##rus": 7946, "stinging": 22748, "must": 2442, "##ila": 11733, "##cus": 7874, "rave": 23289, "recorder": 14520, "exploits": 20397, "[unused644]": 649, "propped": 16863, "ruin": 10083, "melted": 12501, "ceo": 5766, "patronage": 15694, "opined": 26084, "thwarted": 28409, "precise": 10480, "nostrils": 15325, "contemporary": 3824, "3rd": 3822, "notwithstanding": 26206, "##mite": 23419, "drawer": 13065, "##icate": 24695, "##lated": 13776, "featuring": 3794, "##lette": 27901, "##nis": 8977, "thoughts": 4301, "##fully": 7699, "sera": 26358, "height": 4578, "##pas": 19707, "contracted": 11016, "text": 3793, "babe": 11561, "kun": 28919, "nikolay": 28494, "rai": 15547, "harrow": 24560, "election": 2602, "interfere": 15115, "enterprise": 6960, "fragmentation": 28424, "canary": 17154, "##ytic": 21252, "lina": 27022, "communion": 15661, "relativity": 20805, "saloon": 17078, "[unused582]": 587, "##\u0580": 29784, "pisa": 25472, "strength": 3997, "making": 2437, "ctv": 28720, "ser": 14262, "cannot": 3685, "##lick": 25230, "bailey": 8925, "comparison": 7831, "usage": 8192, "##ine": 3170, "##arium": 17285, "##ld": 6392, "fender": 19028, "bowing": 26690, "distinct": 5664, "repertoire": 13646, "bismarck": 22029, "##flower": 14156, "com": 4012, "##deh": 25383, "flourished": 17893, "wilfred": 26026, "[unused779]": 784, "editors": 10195, "[unused543]": 548, "sediments": 20476, "exposure": 7524, "##plin": 28296, "huskies": 29471, "##boro": 12691, "lass": 27333, "costume": 9427, "intended": 3832, "##^": 29637, "outlets": 11730, "picasso": 22457, "##fk": 24316, "conclude": 16519, "\u0987": 1349, "286": 24921, "##dance": 25514, "##olio": 29401, "csi": 22174, "adultery": 29169, "should": 2323, "fabrics": 25123, "rebuild": 14591, "hamid": 24811, "000": 2199, "bae": 25818, "shiny": 12538, "enclave": 25867, "##llation": 20382, "sheila": 15062, "mat": 13523, "1970s": 3955, "title": 2516, "autobiographical": 18534, "##rata": 14660, "recovering": 13400, "prizes": 11580, "entourage": 25342, "tyres": 24656, "reservations": 17829, "travelers": 15183, "administration": 3447, "##ace": 10732, "meant": 3214, "insisting": 22604, "dealt": 9411, "\u00b1": 1081, "bubbling": 25054, "podcast": 16110, "steiner": 21264, "troupe": 16017, "##ipes": 28108, "dwellings": 16707, "winter": 3467, "##hyl": 29598, "lounge": 11549, "biker": 28988, "occurs": 5158, "trademark": 11749, "scholastic": 24105, "##mbre": 19908, "fronts": 21430, "##agne": 25440, "reproduction": 14627, "erosion": 14173, "relocating": 26811, "mortimer": 17416, "##\u672c": 30402, "circulating": 22458, "afterlife": 25115, "##gum": 22850, "siena": 23754, "squinted": 17425, "dominic": 11282, "\u06ba": 1306, "stumble": 21811, "\u00a2": 1068, "##\u9fb8": 30509, "tavern": 13090, "hayes": 10192, "chamberlain": 13904, "van": 3158, "cassie": 8869, "councillors": 13189, "##ache": 15395, "ibm": 9980, "\u05df": 1256, "stagecoach": 26025, "bats": 12236, "afford": 8984, "sketch": 11080, "node": 13045, "deliver": 8116, "store": 3573, "##zier": 21548, "quarterfinals": 9237, "decatur": 27783, "wrestlemania": 28063, "remark": 17674, "put": 2404, "##\u2666": 30153, "result": 2765, "bundles": 26825, "necklace": 13016, "excursion": 26144, "##suke": 16867, "drones": 24633, "stages": 5711, "##aa": 11057, "\u0f56": 1431, "brent": 12895, "migration": 9230, "exceptions": 11790, "mexican": 4916, "##\u6797": 30407, "vane": 23334, "##\u2091": 30090, "codex": 15763, "##osi": 20049, "##imeter": 19198, "##rgos": 22280, "fresco": 26991, "bernardo": 21175, "##region": 23784, "drama": 3689, "##ours": 22957, "manufactured": 7609, "whom": 3183, "1705": 29326, "belief": 6772, "cracked": 9630, "completes": 28123, "1745": 21809, "atlanta": 5865, "brian": 4422, "isabella": 10323, "[unused622]": 627, "##ncia": 22750, "joan": 7437, "swansea": 16085, "440": 17422, "tang": 9745, "relatively": 4659, "\u0939": 1339, "flair": 22012, "radiant": 23751, "dumb": 12873, "##lia": 6632, "cookie": 17387, "building": 2311, "##\u03b2": 29720, "##dler": 21222, "##qua": 16211, "commentator": 12268, "bodyguard": 16174, "pastures": 24813, "\u30ca": 1715, "##eman": 16704, "popularity": 6217, "proceeding": 18207, "macleod": 23075, "committee": 2837, "vincenzo": 24712, "bordering": 18299, "##rich": 13149, "peaked": 6601, "fabric": 8313, "prepare": 7374, "celebrate": 8439, "ball": 3608, "sms": 22434, "##iad": 28665, "##ape": 24065, "discuss": 6848, "tribunal": 12152, "worship": 7425, "gestured": 11574, "secrecy": 20259, "bringing": 5026, "##\u65b9": 30389, "refusal": 13948, "##guchi": 16918, "##ois": 10054, "##mma": 14760, "quad": 17718, "[unused975]": 980, "invitations": 29492, "##\u967d": 30499, "surgeons": 16804, "course": 2607, "##uve": 22909, "engraver": 27771, "typed": 21189, "##dridge": 21482, "1724": 26423, "step": 3357, "financed": 13790, "[unused125]": 130, "policies": 6043, "apron": 20376, "luftwaffe": 17740, "measurement": 10903, "##ports": 25378, "##writer": 15994, "##roll": 28402, "comforting": 16334, "eligibility": 11395, "##yuki": 19663, "theories": 8106, "quarry": 12907, "1741": 25280, "lucivar": 21401, "sous": 27411, "surrender": 7806, "kicker": 22652, "shaky": 15311, "pronouns": 26028, "sa": 7842, "conscription": 26329, "kamal": 21911, "##gata": 26589, "huge": 4121, "##hus": 9825, "websites": 11744, "[unused626]": 631, "unacceptable": 21873, "##cht": 10143, "disciplinary": 17972, "hinduism": 19632, "passed": 2979, "railway": 2737, "micah": 17665, "##ioms": 29178, "plausible": 24286, "sun": 3103, "creation": 4325, "duluth": 28218, "##\u5bae": 30350, "##kling": 20260, "collected": 5067, "wehrmacht": 23443, "berwick": 24957, "pork": 15960, "cr": 13675, "wielding": 26974, "cinematography": 16434, "splits": 19584, "inspections": 29589, "strasbourg": 18104, "feature": 3444, "budget": 5166, "bergen": 12674, "##\u02bb": 29711, "reeling": 28515, "##kal": 12902, "\u0641": 1291, "device": 5080, "victorious": 13846, "##raine": 26456, "raged": 28374, "##oton": 25862, "filled": 3561, "##belle": 25766, "##hwa": 18663, "ac": 9353, "edition": 3179, "nitrogen": 14114, "bulky": 27446, "beale": 28371, "conclusion": 7091, "help": 2393, "handbook": 14812, "fe": 10768, "futuristic": 28971, "inspect": 22459, "\u674e": 1877, "##wg": 27767, "jurist": 22757, "forearm": 16148, "##clusive": 23633, "stacked": 16934, "grille": 26192, "domino": 23968, "cummings": 20750, "capturing": 11847, "fought": 4061, "##ture": 11244, "[unused847]": 852, "procedures": 8853, "objects": 5200, "volunteer": 6951, "##dran": 24914, "cologne": 10918, "monde": 23117, "aperture": 18892, "promo": 19430, "saxons": 28267, "announcement": 8874, "discussion": 6594, "greenberg": 24190, "aura": 15240, "##erik": 27350, "bo": 8945, "vienna": 6004, "omar": 13192, "[unused763]": 768, "\u026f": 1122, "cabins": 20321, "abby": 9460, "\u79cb": 1929, "kira": 15163, "friar": 25287, "##\u79be": 30453, "mare": 11941, "##lly": 9215, "cup": 2452, "shaking": 5513, "##ca": 3540, "indigo": 22472, "shooter": 13108, "\u0633": 1282, "bradford": 9999, "sweater": 14329, "underwood": 22751, "##ne": 2638, "aix": 28443, "usable": 24013, "spreading": 9359, "oval": 9242, "##forms": 22694, "rei": 24964, "##eased": 25063, "thanks": 4283, "##\u0987": 29885, "web": 4773, "watched": 3427, "##icated": 17872, "nursery": 13640, "andreas": 12460, "spans": 14798, "260": 13539, "tres": 24403, "##ly": 2135, "johnnie": 27716, "handicap": 15822, "live": 2444, "reorganized": 14137, "##aj": 13006, "landfill": 28382, "kristina": 28802, "willis": 12688, "tristan": 9822, "fuzzy": 18001, "goalkeeper": 9653, "##\u056b": 29772, "[unused326]": 331, "##ended": 21945, "##pc": 15042, "417": 27519, "monks": 9978, "mantra": 25951, "encouraging": 11434, "braking": 24427, "birthplace": 14508, "editor": 3559, "priory": 14284, "descended": 9287, "changed": 2904, "derrick": 18928, "celia": 18020, "adjustment": 19037, "adoptive": 24787, "class": 2465, "chess": 7433, "fumbled": 20054, "offerings": 14927, "deteriorated": 20111, "cradle": 18293, "ponder": 29211, "mathews": 23287, "band": 2316, "cyclone": 11609, "##eros": 27360, "jensen": 14857, "##rgeon": 28242, "nero": 19212, "##tek": 23125, "plea": 14865, "[unused139]": 144, "inhibitors": 25456, "##borough": 10235, "exposing": 14944, "away": 2185, "~": 1066, "speeds": 10898, "syrup": 23353, "paddy": 16063, "##\u043c": 29745, "##eland": 25689, "angry": 4854, "photo": 6302, "\u0640": 1290, "ligue": 18374, "##\u3068": 30192, "knowledge": 3716, "monday": 6928, "tastes": 16958, "##nham": 20465, "zip": 14101, "deck": 5877, "arrogant": 15818, "lots": 7167, "##rath": 27362, "\u90e1": 1959, "tail": 5725, "1704": 27769, "heads": 4641, "##pie": 14756, "listings": 26213, "vinnie": 24214, "dan": 4907, "##\u110a": 29998, "##az": 10936, "\u03b6": 1160, "##meter": 22828, "ragged": 14202, "##balls": 18510, "panther": 15133, "caller": 20587, "##rting": 24097, "##oga": 18170, "cushion": 22936, "calculating": 20177, "forcibly": 20951, "news": 2739, "marine": 3884, "##hta": 22893, "peerage": 18760, "##iba": 18410, "user": 5310, "##oese": 23379, "dictated": 23826, "esteem": 19593, "610": 19827, "ke": 17710, "whilst": 5819, "##zzo": 12036, "boosted": 28043, "variations": 8358, "ruby": 10090, "##inating": 19185, "keyboardist": 20173, "edward": 3487, "##oses": 27465, "penitentiary": 29569, "97": 5989, "##kshi": 27488, "hers": 5106, "uppsala": 25720, "\u661f": 1866, "stitches": 25343, "\u56db": 1798, "leicester": 11258, "##baum": 14898, "flinched": 19201, "directions": 7826, "inclined": 13050, "queens": 8603, "dish": 9841, "##oise": 23565, "gnome": 25781, "##nde": 13629, "epic": 8680, "neutron": 20393, "[unused357]": 362, "companies": 3316, "indonesian": 9003, "anthem": 11971, "engineers": 6145, "ruins": 8435, "##mark": 10665, "lowering": 13845, "arranging": 19018, "olympus": 26742, "writing": 3015, "enterprises": 9926, "[unused811]": 816, "ultraviolet": 26299, "mirage": 21483, "fined": 16981, "enigma": 26757, "##rag": 29181, "appleton": 26050, "##cast": 10526, "ducked": 13781, "hut": 12570, "##cki": 18009, "[unused96]": 97, "##pura": 21228, "##sai": 15816, "kits": 18628, "mcbride": 18958, "##\u03c1": 29732, "nba": 6452, "paperwork": 17397, "gunnery": 27919, "beacon": 14400, "ratios": 21879, "uneven": 17837, "arjun": 26024, "##\u116d": 30013, "vita": 19300, "##ignment": 24838, "pill": 17357, "obstacles": 15314, "fines": 21892, "##lge": 28875, "1780": 15051, "##\u0272": 29689, "intermediate": 7783, "chefs": 27828, "##schaft": 26527, "##fus": 25608, "coconut": 16027, "wonders": 16278, "nursing": 8329, "910": 27743, "shrewsbury": 18174, "nasal": 19077, "balls": 7395, "##\u2075": 30074, "reconcile": 21063, "##rued": 28551, "##\u771f": 30447, "understood": 5319, "##rds": 17811, "uae": 17641, "around": 2105, "brook": 9566, "mona": 13813, "seller": 14939, "1746": 24507, "##vre": 12229, "subdistrict": 24150, "##chus": 16194, "##odle": 26156, "flanked": 15874, "julien": 19290, "snout": 17291, "cocktail": 18901, "excavated": 15199, "differences": 5966, "reports": 4311, "thirteen": 7093, "covenant": 16077, "provisions": 8910, "##rand": 13033, "sable": 23492, "meat": 6240, "colon": 16844, "yun": 22854, "researchers": 6950, "franz": 8965, "eden": 10267, "utah": 6646, "green": 2665, "proud": 7098, "wroc\u0142aw": 25160, "davis": 4482, "bind": 14187, "biceps": 27947, "quicker": 19059, "homicide": 18268, "reelection": 17648, "methane": 24481, "devils": 13664, "condemning": 28525, "medieval": 5781, "wang": 7418, "whales": 17967, "rules": 3513, "friendships": 28956, "larvae": 9673, "observes": 24451, "initiate": 17820, "votes": 4494, "expenses": 11727, "play": 2377, "messaging": 24732, "romano": 22070, "##hun": 17157, "maha": 24404, "##lese": 24527, "##\u767d": 30441, "norm": 13373, "304": 23859, "vocalist": 8032, "attested": 18470, "falls": 4212, "symbols": 9255, "192": 17613, "magna": 20201, "\u21cc": 1590, "organic": 7554, "[unused810]": 815, "yoko": 28758, "gritted": 17307, "flushed": 12953, "feels": 5683, "1758": 16832, "defaulted": 17265, "prevention": 9740, "temperatures": 7715, "innovative": 9525, "signifies": 27353, "hiding": 6318, "cultivation": 13142, "##mas": 9335, "hated": 6283, "##\u2264": 30135, "helium": 22764, "sophia": 9665, "toyota": 11742, "[unused682]": 687, "gonzales": 24334, "volumes": 6702, "trooper": 28224, "bureaucracy": 25934, "##vita": 28403, "tnt": 24048, "recognizes": 14600, "bethel": 19375, "obliged": 14723, "##hane": 28006, "widespread": 6923, "allie": 16944, "polish": 3907, "pandora": 19066, "charitable": 11128, "##eth": 11031, "churning": 26765, "pitching": 14696, "borrowed": 11780, "tunnel": 5234, "##bine": 16765, "[unused148]": 153, "##jal": 25787, "##aly": 20766, "gift": 5592, "freedom": 4071, "##ety": 27405, "chosen": 4217, "hercules": 15067, "##\u1173": 30017, "right": 2157, "imaginary": 15344, "sovereignty": 12601, "attitudes": 13818, "hampson": 21780, "##tur": 20689, "chanting": 22417, "detention": 12345, "act": 2552, "wanted": 2359, "accumulation": 20299, "##ote": 12184, "\u05d8": 1249, "unconventional": 23693, "bert": 14324, "employers": 12433, "[unused681]": 686, "montpellier": 28153, "1604": 28754, "sincere": 18006, "nixon": 11296, "monitors": 15410, "mythical": 19336, "killings": 16431, "##hes": 15689, "valid": 9398, "aus": 17151, "canals": 17263, "remixed": 17574, "clan": 6338, "lucille": 28016, "[unused766]": 771, "##rley": 12866, "cemeteries": 20973, "cobalt": 25627, "marion": 10115, "racism": 14398, "routes": 5847, "##yal": 21095, "sliding": 8058, "proved": 4928, "wounding": 27285, "beetles": 14538, "weary": 16040, "hideout": 29588, "choreography": 16967, "elliptic": 29413, "keeps": 7906, "hornet": 26795, "##inge": 23496, "magnificent": 12047, "pipeline": 13117, "aftermath": 10530, "##cke": 19869, "##shire": 7430, "##rup": 21531, "flipping": 18497, "armies": 8749, "elongated": 17876, "##ople": 27469, "studios": 4835, "##nism": 28113, "armando": 26716, "harriet": 14207, "##odies": 27391, "gratitude": 15531, "captured": 4110, "sirius": 23466, "clutching": 14197, "document": 6254, "##sby": 14478, "dog": 3899, "yarn": 27158, "##verted": 26686, "research": 2470, "escorts": 24877, "aden": 16298, "public": 2270, "##carriage": 21539, "requirement": 9095, "newborn": 20662, "1666": 27407, "spa": 12403, "hayward": 21506, "lodging": 26859, "july": 2251, "hunt": 5690, "molten": 23548, "fleeting": 25085, "vital": 8995, "##oun": 23709, "disclosed": 21362, "etched": 20286, "\u7acb": 1931, "sy": 25353, "##\u00b7": 29661, "magnitude": 10194, "danielle": 18490, "mgm": 15418, "##lastic": 28723, "nadu": 10703, "exceeds": 23651, "deco": 21933, "##oria": 11069, "benefactor": 27398, "applied": 4162, "unified": 10562, "\u9ad8": 1981, "slightest": 15989, "##haven": 14650, "detector": 19034, "skepticism": 27936, "promising": 10015, "desired": 9059, "buckley": 17898, "arkansas": 6751, "mckenzie": 18506, "articles": 4790, "prefer": 9544, "inquiries": 27050, "##ls": 4877, "##ditional": 27064, "1734": 27367, "screened": 12238, "##oran": 18842, "baba": 14208, "panchayat": 20079, "[unused612]": 617, "intake": 13822, "computational": 15078, "deleted": 17159, "responsive": 26651, "1815": 10679, "##hya": 17915, "orioles": 18893, "bouncing": 16361, "laurie": 16450, "crumpled": 19814, "mythological": 21637, "approximately": 3155, "\u060c": 1268, "waking": 12447, "##scopic": 24895, "leg": 4190, "octagonal": 22340, "sv": 17917, "fed": 7349, "\u0430": 1180, "freud": 19338, "domingo": 15586, "serviced": 22858, "microscopy": 29105, "uniformly": 27423, "##lden": 28476, "dancers": 10487, "fur": 6519, "veteran": 8003, "alex": 4074, "soy": 25176, "##\u5065": 30294, "bonnie": 12220, "oak": 6116, "venom": 15779, "##ographer": 26145, "patrol": 6477, "fowler": 14990, "gestures": 18327, "##\u3084": 30208, "reef": 12664, "eastward": 17318, "chromosomes": 26874, "[unused512]": 517, "conform": 23758, "algorithms": 13792, "partridge": 26079, "adviser": 11747, "##ssel": 21218, "reference": 4431, "campus": 3721, "congresses": 24460, "yd": 21076, "clipped": 20144, "[unused662]": 667, "##\u09b0": 29908, "kw": 6448, "er": 9413, "clenched": 8555, "rule": 3627, "##dus": 17619, "negotiating": 18875, "##poulos": 24662, "relaxation": 23370, "montrose": 24990, "##esa": 22447, "stabilization": 28715, "swallow": 10577, "##wyn": 11761, "paula": 13723, "##castle": 23662, "parallel": 5903, "rumbled": 22257, "infection": 8985, "gaze": 3657, "swayed": 20122, "partially": 6822, "##moor": 17622, "izzy": 16699, "defend": 6985, "exceptional": 11813, "susie": 23917, "##het": 27065, "1722": 26689, "490": 22288, "persona": 16115, "spell": 6297, "morgan": 5253, "rubin": 20524, "website": 4037, "accuracy": 10640, "floods": 14295, "perceive": 23084, "##\u76ee": 30444, "noble": 7015, "stanis\u0142aw": 26133, "slender": 10944, "decidedly": 27873, "##olved": 16116, "##worm": 22769, "carnival": 11485, "mist": 11094, "thursday": 9432, "[unused801]": 806, "##pan": 9739, "copyright": 9385, "goodness": 15003, "vehicles": 4683, "##clops": 28659, "##\u043d": 18947, "describing": 7851, "know": 2113, "historia": 19891, "\u7a7a": 1930, "incorporates": 12374, "howled": 27489, "countered": 17970, "remington": 25282, "buyers": 17394, "gather": 8587, "[unused767]": 772, "sq": 5490, "hosting": 9936, "ernesto": 22428, "accusing": 16723, "thrilling": 26162, "parents": 3008, "mug": 14757, "[unused599]": 604, "altered": 8776, "bruise": 24851, "##hop": 18471, "eater": 28496, "outstanding": 5151, "moderate": 8777, "ballistic": 19630, "colombo": 16224, "[unused118]": 123, "saxe": 24937, "##\u0111": 29671, "crane": 11308, "dyed": 28432, "shrimp": 20130, "video": 2678, "geek": 29294, "##force": 14821, "fits": 16142, "formidable": 18085, "bouquet": 26700, "##mut": 28120, "fuselage": 13478, "##als": 9777, "dung": 29328, "##say": 24322, "hybrid": 8893, "sts": 8541, "sides": 3903, "inspected": 20456, "leisure": 12257, "1934": 4579, "stake": 8406, "[unused516]": 521, "stephan": 15963, "south": 2148, "\u7cf9": 1934, "sour": 14768, "magician": 16669, "captives": 21496, "##tas": 10230, "vanishing": 24866, "##nin": 11483, "along": 2247, "1945": 3386, "privacy": 9394, "[unused789]": 794, "cow": 11190, "cranes": 27083, "got": 2288, "toby": 11291, "murderers": 28882, "##ories": 18909, "##aint": 22325, "parts": 3033, "laos": 15786, "\u0268": 1118, "##\u30c1": 30236, "julius": 10396, "##ut": 4904, "browns": 13240, "bitten": 19026, "generations": 8213, "descent": 6934, "campuses": 13696, "1852": 8784, "outbreak": 8293, "##pers": 7347, "##ride": 15637, "lamps": 14186, "prone": 13047, "regarded": 5240, "##ous": 3560, "revival": 6308, "regulate": 15176, "c2": 29248, "somme": 25158, "counterpart": 13637, "musicians": 5389, "need": 2342, "intending": 16533, "licence": 11172, "annoyance": 17466, "pal": 14412, "settlement": 4093, "exhibit": 8327, "kendrick": 25341, "flank": 12205, "printing": 8021, "[unused145]": 150, "exchanging": 25620, "##belt": 21561, "earth": 3011, "frown": 11330, "##overs": 24302, "nsa": 23971, "##nsis": 11745, "1847": 9176, "illustrator": 13825, "titular": 12960, "nail": 13774, "##sphere": 23874, "\u52dd": 1780, "scents": 29254, "dieter": 27976, "\u2098": 1567, "tease": 18381, "constellation": 15300, "##icum": 22167, "##\u3053": 30181, "losses": 6409, "newtown": 26382, "\u0456": 1213, "recess": 28290, "soil": 5800, "mike": 3505, "[unused239]": 244, "encounter": 8087, "monkey": 10608, "\u0e19": 1413, "eastern": 2789, "bail": 15358, "empowered": 26480, "restraints": 28054, "[unused780]": 785, "##yar": 13380, "mounds": 19503, "hailed": 16586, "mercenary": 22146, "bremen": 16314, "chiefly": 15897, "shape": 4338, "remarked": 10783, "cairo": 11096, "rampant": 25883, "\u98a8": 1977, "overhead": 8964, "exemplified": 28593, "berkeley": 8256, "111": 11118, "distributing": 20083, "cooler": 14976, "predictable": 21425, "places": 3182, "shop": 4497, "##paper": 23298, "assortment": 26285, "buren": 29470, "churches": 5231, "##tute": 24518, "555": 29541, "sixteenth": 14683, "sagged": 26719, "##\u2154": 30110, "tossing": 15021, "cubic": 11919, "\u2606": 1621, "shillings": 29332, "disappearing": 14489, "demise": 13614, "[unused719]": 724, "##\u0268": 29684, "header": 20346, "lakers": 18264, "spray": 12509, "rebellious": 22614, "juarez": 25398, "[unused537]": 542, "ourselves": 9731, "renamed": 4096, "##ipe": 15457, "[unused635]": 640, "olympics": 3783, "clans": 16411, "handled": 8971, "\u05e5": 1262, "uneasy": 15491, "giggling": 21783, "##idium": 28742, "pendleton": 24349, "[unused921]": 926, "##horse": 23024, "winners": 4791, "abstracts": 29474, "trailer": 9117, "receive": 4374, "blasts": 25829, "##ndi": 16089, "##ghi": 28891, "[unused927]": 932, "motor": 5013, "expands": 24545, "constructions": 21913, "restructuring": 18322, "##dit": 23194, "dunes": 17746, "##isan": 29196, "burning": 5255, "\u0940": 1342, "##\u0279": 29691, "##rama": 14672, "rebounds": 11049, "flex": 23951, "dots": 14981, "negro": 12593, "benjamin": 6425, "##zzle": 17644, "tobacco": 9098, "consumers": 10390, "talked": 5720, "rudd": 25298, "dona": 24260, "slapped": 11159, "##ending": 18537, "##tc": 13535, "administrative": 3831, "##\u0449": 29754, "weiss": 17889, "single": 2309, "admired": 12749, "metric": 12046, "variety": 3528, "##fying": 14116, "##ns": 3619, "vary": 8137, "absence": 6438, "issuing": 15089, "holds": 4324, "rotation": 9963, "cops": 10558, "siege": 6859, "hypnotic": 28322, "oppose": 15391, "are": 2024, "##\u0e2d": 29957, "[unused439]": 444, "mercantile": 25420, "follower": 22399, "clinched": 18311, "bulldog": 28628, "##tral": 21493, "##lica": 19341, "furniture": 7390, "shit": 4485, "binary": 12441, "val": 11748, "coast": 3023, "\u5ddd": 1835, "mounting": 15986, "pickup": 15373, "##tucket": 29315, "snort": 26759, "parochial": 28773, "gs": 28177, "flashback": 21907, "##anna": 25789, "contemplated": 23133, "\u03c1": 1171, "willing": 5627, "##lino": 25226, "354": 27878, "##pour": 27757, "54th": 29570, "##erus": 21608, "cantor": 26519, "1969": 3440, "louisiana": 5773, "product": 4031, "finds": 4858, "##hita": 23935, "evolutionary": 12761, "\u00ae": 1079, "midtown": 27219, "##rner": 18703, "fabio": 25616, "reassuring": 21093, "medications": 20992, "ng": 12835, "heights": 7535, "donnell": 18016, "sentiment": 15792, "henri": 8863, "[unused871]": 876, "theologians": 29013, "motorcycle": 9055, "employee": 7904, "amp": 23713, "us": 2149, "milestone": 19199, "strangled": 21384, "resembles": 12950, "##ve": 3726, "##fect": 25969, "proteins": 8171, "resignation": 8172, "lungs": 8948, "\u76f8": 1919, "##nb": 27698, "\u0f51": 1428, "aa": 9779, "postmaster": 20707, "##pus": 12207, "skulls": 21542, "stemmed": 27674, "hansen": 13328, "intent": 7848, "##\u5357": 30311, "##\u0936": 29872, "billboard": 4908, "zhao": 15634, "empty": 4064, "she": 2016, "coma": 16571, "dickinson": 17590, "eating": 5983, "##ault": 23505, "scanning": 13722, "##kat": 24498, "narayan": 24331, "crossover": 16335, "lexington": 14521, "millionaire": 19965, "spurred": 22464, "337": 28489, "tanzania": 11959, "associations": 8924, "blending": 23293, "emphasize": 17902, "##puted": 29462, "roger": 5074, "parade": 7700, "##ched": 7690, "##eca": 19281, "roll": 4897, "charges": 5571, "cesar": 14923, "meetings": 6295, "teachings": 12209, "##mo": 5302, "##19": 16147, "fernandez": 12023, "imagine": 5674, "gearbox": 22227, "[unused419]": 424, "##53": 22275, "juliette": 24696, "watery": 28259, "keepers": 24018, "##oda": 13390, "bp": 17531, "tracker": 27080, "mal": 15451, "\u1d4f": 1501, "how": 2129, "zionist": 21379, "backup": 10200, "irene": 12855, "madden": 24890, "octave": 21817, "winters": 12214, "##bro": 12618, "##rde": 25547, "##ulous": 16203, "regimes": 25228, "##ffen": 18032, "##lellan": 25839, "##words": 22104, "switzerland": 5288, "drilled": 24311, "##azi": 16103, "[unused424]": 429, "tiled": 26510, "##wald": 11191, "determination": 9128, "[unused448]": 453, "##uring": 12228, "##\u0435\u0432\u0438\u0447": 22646, "propeller": 15692, "moth": 5820, "spraying": 29035, "waterford": 17769, "designer": 5859, "##acle": 18630, "injuring": 22736, "paternal": 15112, "thoughtfully": 19897, "say": 2360, "##stone": 9221, "psalm": 22728, "derivatives": 16942, "home": 2188, "##isches": 27239, "inning": 12994, "languages": 4155, "demo": 9703, "317": 26628, "directs": 23303, "\u5929": 1811, "messenger": 11981, "##minster": 24431, "silent": 4333, "asthma": 26180, "ago": 3283, "undergraduate": 8324, "##stones": 29423, "brenda": 15507, "zeppelin": 22116, "##dar": 7662, "vain": 15784, "fluorescent": 22184, "##\u4e2d": 30272, "##mer": 5017, "farther": 8736, "practiced": 9051, "##lic": 10415, "memories": 5758, "spade": 23288, "flawed": 25077, "##etic": 16530, "##ents": 11187, "##pose": 20688, "##sk": 6711, "##lter": 21928, "intrusion": 24554, "extending": 8402, "trenton": 17148, "[unused708]": 713, "##ieving": 25587, "aside": 4998, "listen": 4952, "flock": 19311, "exterior": 8829, "relegated": 7049, "bamboo": 15216, "zipper": 22082, "sharply": 9249, "##wheel": 22920, "carpenter": 10533, "leonid": 27316, "##oja": 22918, "forbidden": 10386, "##\u221e": 30128, "branding": 16140, "##ias": 7951, "##ulation": 9513, "volcanic": 10942, "emile": 17127, "lifespan": 26462, "\u00a7": 1073, "manuel": 7762, "biscuits": 27529, "lily": 7094, "murderer": 13422, "jase": 18626, "refuse": 10214, "turns": 4332, "rumours": 19200, "flora": 10088, "chan": 9212, "totals": 21948, "misses": 22182, "apologized": 17806, "##lton": 13947, "1768": 19793, "vulnerability": 18130, "rescues": 26001, "dimensions": 9646, "##ghan": 22218, "juliana": 24157, "tao": 20216, "assumption": 11213, "1754": 22593, "##lium": 21816, "doctorate": 8972, "##ie": 2666, "spartan": 20670, "##ehan": 24660, "takeoff": 19744, "mahmoud": 27278, "resistance": 5012, "greyish": 26916, "##gre": 17603, "alternative": 4522, "stewart": 5954, "liberalism": 26505, "essendon": 25149, "festivities": 21206, "brewers": 20007, "compensate": 19079, "pretty": 3492, "##dara": 25329, "hasan": 17000, "foliage": 19624, "sylvie": 26009, "morphological": 24012, "husbands": 19089, "programmers": 28547, "invitational": 20129, "economists": 22171, "palmer": 8809, "comet": 15699, "tend": 7166, "disliked": 18966, "package": 7427, "implies": 12748, "gillian": 22358, "differ": 11234, "thereafter": 6920, "confront": 14323, "holders": 13304, "##rra": 11335, "involved": 2920, "environment": 4044, "\u1d50": 1502, "corpse": 11547, "##edging": 28002, "##trix": 29184, "gas": 3806, "frankish": 26165, "cypriot": 18543, "distribution": 4353, "##kel": 11705, "faintly": 18587, "##fting": 26169, "[unused679]": 684, "lunatic": 26594, "nonetheless": 9690, "exceeded": 14872, "##aging": 16594, "##\u09b8": 29912, "tits": 25671, "cappella": 23013, "##13": 17134, "defiance": 19674, "##feld": 8151, "antoine": 12445, "65": 3515, "bra": 11655, "regulating": 21575, "solvent": 23735, "##nosis": 27109, "grover": 25242, "confusion": 6724, "[unused265]": 270, "relates": 14623, "stacey": 19997, "##tl": 19646, "1881": 7005, "[unused822]": 827, "penalty": 6531, "\u798f": 1926, "beamed": 22587, "fees": 9883, "old": 2214, "traveling": 7118, "clarity": 15563, "##ggles": 24989, "areas": 2752, "caleb": 10185, "##sh": 4095, "concerns": 5936, "scans": 27404, "[unused624]": 629, "mead": 19855, "##lers": 12910, "quoting": 27394, "computing": 9798, "##dies": 18389, "trace": 7637, "volga": 26459, "##rik": 15564, "[unused67]": 68, "##khand": 25910, "\u8c9d": 1952, "[unused803]": 808, "alarm": 8598, "##\u1162": 30007, "imminent": 17566, "projections": 21796, "rotate": 24357, "curvature": 25045, "nearing": 23454, "\u0645": 1295, "kazakh": 25907, "1897": 6347, "##\u05e7": 29810, "dough": 23126, "##eed": 13089, "arabs": 14560, "a1": 17350, "peeling": 28241, "[unused3]": 4, "additions": 13134, "boyd": 12164, "[unused646]": 651, "##nical": 20913, "##hawk": 17998, "recommendations": 11433, "prompting": 15870, "brigades": 14589, "mai": 14736, "surveying": 19654, "[unused203]": 208, "debut": 2834, "[unused829]": 834, "surplus": 15726, "halftime": 22589, "##gli": 25394, "##\u30ec": 30260, "iranian": 7726, "door": 2341, "italiana": 28059, "islander": 12544, "have": 2031, "congress": 3519, "jarvis": 21072, "sabotage": 20223, "[unused428]": 433, "tanks": 7286, "astronomy": 12799, "173": 19410, "##held": 24850, "\u4e94": 1753, "ops": 23092, "grenada": 29153, "emerges": 19391, "##lain": 15987, "##ity": 3012, "alpha": 6541, "inspection": 10569, "decisive": 13079, "celebrating": 12964, "eli": 12005, "hygiene": 19548, "tennessee": 5298, "[unused823]": 828, "##bly": 6321, "minh": 19538, "macmillan": 15434, "reissued": 14805, "classed": 27811, "gm": 13938, "cheyenne": 17778, "stabbing": 21690, "villa": 6992, "alyssa": 26442, "combining": 11566, "combatants": 26622, "##ppe": 21512, "damascus": 16094, "birds": 5055, "jeremy": 7441, "\u0636": 1285, "dennis": 6877, "peanuts": 27613, "francisco": 3799, "louie": 17438, "sg": 22214, "cuisine": 12846, "attic": 14832, "plunging": 29059, "##\uff0d": 30516, "jock": 23407, "aesthetic": 12465, "muddy": 15405, "disbanded": 8532, "galileo": 21514, "##cope": 16186, "##onis": 27296, "##\u300a": 30165, "agitated": 21568, "dodge": 11898, "dramas": 16547, "yelling": 13175, "sighted": 19985, "suppose": 6814, "##oman": 20778, "pinch": 18392, "topic": 8476, "##zione": 20574, "renaissance": 8028, "emotion": 7603, "amended": 13266, "380": 17014, "plantation": 10065, "##rn": 6826, "kernel": 16293, "winchester": 12841, "cyclic": 23750, "entering": 5738, "bwf": 21215, "##mbs": 29232, "##grant": 18980, "substantive": 27737, "topographic": 24254, "squirrels": 29384, "nk": 25930, "\u308c": 1688, "jupiter": 13035, "nipples": 28124, "allocated": 11095, "reign": 5853, "aleppo": 22973, "bohemian": 18063, "[unused554]": 559, "classifications": 26739, "begins": 4269, "hadn": 2910, "connecticut": 6117, "innovations": 15463, "repairs": 10315, "diaz": 12526, "helmut": 24515, "##going": 26966, "##tha": 8322, "leagues": 8121, "doi": 9193, "sid": 15765, "tianjin": 26216, "fort": 3481, "##holm": 18884, "nolan": 13401, "##atable": 27892, "crucial": 10232, "[unused842]": 847, "daughters": 5727, "##aghan": 26685, "tables": 7251, "##cut": 12690, "[unused346]": 351, "nmi": 22484, "turner": 6769, "accents": 24947, "afc": 10511, "recall": 9131, "gulf": 6084, "dropping": 7510, "bonded": 20886, "np": 27937, "charcoal": 18872, "romantic": 6298, "footprint": 24319, "[unused724]": 729, "##eri": 11124, "oracle": 14721, "##champ": 25450, "##tens": 25808, "propaganda": 10398, "27": 2676, "[unused111]": 116, "15": 2321, "##\u0649": 29837, "##lish": 13602, "rained": 28270, "archaeologist": 18821, "extent": 6698, "atrocities": 23482, "\u4e5f": 1750, "132": 14078, "retail": 7027, "hackett": 28630, "jin": 9743, "vin": 19354, "seattle": 5862, "##\u02b8": 29710, "mig": 19117, "audiences": 9501, "anticipating": 26481, "[unused949]": 954, "hydraulic": 14761, "villain": 12700, "stripes": 13560, "varsity": 11710, "satellites": 14549, "magma": 28933, "coloration": 28757, "promoting": 7694, "[unused355]": 360, "grease": 21956, "combined": 4117, "\u057f": 1236, "##tman": 22942, "devised": 14917, "graduating": 6800, "henrietta": 20775, "constitutes": 17367, "##lore": 20186, "[unused928]": 933, "1907": 5528, "##\u207f": 30080, "##arina": 27943, "ike": 25209, "hyper": 23760, "scroll": 17186, "aka": 9875, "bloomington": 26372, "lonely": 9479, "markets": 6089, "rooms": 4734, "masterpiece": 17743, "##tery": 20902, "##ssion": 28231, "illustrating": 28252, "ld": 25510, "elena": 9060, "nearer": 20388, "screaming": 7491, "343": 27810, "91": 6205, "defence": 4721, "richest": 18429, "bundled": 24378, "##@": 29633, "##aw": 10376, "##\u03c3": 29733, "telling": 4129, "promoted": 3755, "intel": 13420, "defines": 11859, "remorse": 23124, "promoters": 26512, "bengals": 23227, "mongols": 22235, "third": 2353, "boycott": 17757, "decrees": 28966, "erasmus": 26809, "cages": 27157, "very": 2200, "##\u02e2": 29717, "beloved": 11419, "zion": 19999, "periodic": 15861, "##riated": 25475, "##osaurus": 25767, "strengthen": 12919, "##zos": 28370, "coughing": 21454, "romance": 7472, "##eck": 11012, "doubles": 7695, "flourishing": 29571, "traditions": 7443, "involvement": 6624, "herman": 11458, "worsened": 27622, "sand": 5472, "fun": 4569, "244": 24194, "208": 18512, "maine": 7081, "fielded": 20988, "[unused31]": 32, "2015": 2325, "tells": 4136, "##iate": 13143, "consciousness": 8298, "rusty": 13174, "polo": 11037, "##hai": 10932, "##tri": 18886, "vicky": 22845, "composite": 12490, "##\u09ae": 29906, "christi": 21359, "mornings": 16956, "concepcion": 27331, "tee": 17170, "influenced": 5105, "mentally": 10597, "\"": 1000, "53": 5187, "geometric": 14965, "\u540d": 1795, "\u00b7": 1087, "jogged": 27812, "absorption": 16326, "[unused79]": 80, "##tlement": 24007, "ridge": 5526, "instinct": 12753, "##ria": 4360, "##rar": 19848, "salts": 23480, "[unused324]": 329, "vittorio": 25914, "##\u5143": 30295, "qatar": 12577, "grams": 20372, "prompt": 25732, "coffin": 13123, "darrell": 23158, "##eria": 11610, "aground": 29406, "attract": 9958, "underwater": 11564, "[unused26]": 27, "jenny": 8437, "curled": 8188, "promote": 5326, "supervisors": 22565, "fantasy": 5913, "roofed": 26080, "superfamily": 24169, "fritz": 12880, "collects": 17427, "[unused814]": 819, "neighbors": 10638, "##grin": 24860, "ignoring": 9217, "emerald": 14110, "[unused720]": 725, "referee": 5330, "fog": 9666, "tuba": 29242, "##\u03bb": 29727, "kraft": 26680, "howie": 28211, "highlights": 11637, "sao": 7509, "declining": 13993, "oddly": 15056, "discount": 19575, "routines": 23964, "thirties": 26313, "1994": 2807, "##bedo": 28759, "westbound": 24717, "anthologies": 25675, "additionally": 5678, "kabul": 21073, "flexed": 24244, "orb": 19607, "silvio": 28107, "doubts": 13579, "macarthur": 17719, "scattering": 17501, "##gent": 11461, "arenas": 26434, "webb": 10923, "probe": 15113, "##ck": 3600, "[unused213]": 218, "##ssar": 25556, "draining": 19689, "armenians": 20337, "rr": 25269, "modernist": 19770, "fragmented": 26872, "outdated": 25963, "jaime": 14519, "\u00a32": 21853, "bertram": 27515, "[unused250]": 255, "screenings": 25437, "processing": 6364, "erik": 10240, "ins": 16021, "marrying": 13516, "##ading": 23782, "prolific": 12807, "ignorance": 18173, "##iste": 27870, "location": 3295, "[unused916]": 921, "choral": 14564, "##ary": 5649, "tangible": 24600, "broncos": 14169, "usl": 22448, "pune": 16920, "voter": 14303, "atkins": 21087, "glasses": 7877, "gang": 6080, "2016": 2355, "##enko": 17868, "pick": 4060, "margins": 17034, "fixture": 15083, "##hu": 6979, "ingredients": 12760, "mansions": 26842, "queen": 3035, "contributing": 8020, "bother": 8572, "wrongly": 29116, "czechoslovakia": 12833, "\u4ecb": 1759, "##tling": 15073, "obsessed": 15896, "##yria": 20379, "dom": 14383, "modelled": 23364, "##etano": 28752, "depend": 12530, "therefore": 3568, "##\u00bd": 13714, "pup": 26781, "yard": 4220, "hillsborough": 29330, "glamour": 22439, "##\u09aa": 29903, "hire": 10887, "urdu": 12454, "\u548c": 1796, "shifts": 12363, "interdisciplinary": 18593, "pondered": 28347, "##vic": 7903, "si": 9033, "##adia": 25205, "ned": 12311, "safely": 9689, "popcorn": 24593, "hanover": 14393, "twisting": 12814, "##cased": 28969, "punish": 16385, "confess": 18766, "landings": 16805, "##llus": 20159, "termed": 12061, "hilbert": 27434, "prayer": 7083, "wii": 16568, "expectations": 10908, "feeding": 8521, "##\u65b0": 30388, "[unused420]": 425, "implementation": 7375, "##\ufb02": 30511, "##lled": 11001, "fearful": 19725, "moreover": 9308, "muzzle": 17750, "brain": 4167, "[unused552]": 557, "comprehension": 26683, "[unused689]": 694, "##ganj": 22738, "airlines": 7608, "stiffly": 27499, "##\u540c": 30320, "##\u0582": 29785, "arturo": 20520, "boat": 4049, "##ady": 18632, "consort": 13440, "beige": 28799, "labourers": 24043, "raced": 8255, "slam": 9555, "tyrant": 26508, "membership": 5779, "honors": 7836, "alvaro": 24892, "controversial": 6801, "depends": 9041, "gaulle": 28724, "continually": 14678, "##vary": 21639, "pietro": 15541, "cliffs": 13333, "##top": 14399, "tooth": 11868, "\u6c11": 1892, "similarity": 14402, "##co": 3597, "readiness": 19822, "##iche": 17322, "##fire": 10273, "nicaragua": 15448, "stimulus": 19220, "nicknamed": 9919, "[unused1]": 2, "seeds": 8079, "##\u8c9d": 30478, "##ype": 18863, "##ass": 12054, "wilkinson": 16237, "bolton": 12118, "##berger": 14859, "represent": 5050, "united": 2142, "##orestation": 25794, "adolescents": 25947, "furnished": 19851, "stability": 9211, "solomon": 9168, "1838": 9931, "estates": 8707, "nintendo": 10022, "andrew": 4080, "swimmer": 13361, "gaa": 19930, "##lings": 11227, "[unused783]": 788, "background": 4281, "emanuel": 21135, "pouch": 21445, "1773": 19916, "renewable": 13918, "lila": 19286, "possessions": 13689, "##ury": 13098, "renewal": 14524, "sunni": 18883, "glue": 25238, "##rled": 27501, "##right": 15950, "greek": 3306, "adjustments": 24081, "tempo": 13657, "##\u1102": 29992, "straightforward": 19647, "hope": 3246, "shelley": 15828, "promises": 10659, "thanked": 15583, "michelle": 9393, "\u30e3": 1728, "##ni": 3490, "##chan": 14856, "routing": 16972, "eat": 4521, "##nick": 13542, "afforded": 22891, "contained": 4838, "[unused371]": 376, "##fs": 10343, "via": 3081, "##ldon": 19932, "offended": 15807, "joined": 2587, "##ical": 7476, "brains": 14332, "##station": 20100, "workout": 27090, "lads": 29126, "[unused729]": 734, "fitch": 26062, "##\u2297": 30140, "critically": 11321, "##rrado": 27933, "trois": 25527, "liter": 23675, "excellent": 6581, "regions": 4655, "november": 2281, "##cts": 16649, "woodland": 11051, "##sis": 6190, "forcefully": 23097, "##nka": 25804, "heath": 9895, "eyed": 7168, "\u1169": 1475, "##urai": 24804, "bethlehem": 19360, "decades": 5109, "writ": 25697, "assaulted": 17536, "anti": 3424, "##channel": 26058, "##sack": 25607, "coe": 24873, "[unused835]": 840, "mca": 22432, "cross": 2892, "astor": 25159, "piercing": 14628, "like": 2066, "##used": 13901, "criminals": 12290, "either": 2593, "lange": 21395, "overseas": 6931, "impacted": 19209, "philosophy": 4695, "barrett": 12712, "coming": 2746, "##sf": 22747, "ashford": 26545, "disagreed": 18335, "540": 20263, "251": 22582, "##\u0289": 29697, "bandage": 24446, "##my": 8029, "olivier": 14439, "rang": 8369, "##adt": 18727, "##wara": 11872, "quarterfinal": 29380, "bis": 20377, "worn": 6247, "undermine": 25174, "[unused227]": 232, "cheating": 16789, "marching": 10998, "pulsed": 24107, "##sche": 22842, "frontiers": 28750, "quantitative": 20155, "tucker": 9802, "javelin": 23426, "arching": 27335, "franchise": 6329, "palestine": 8976, "##shot": 19040, "##che": 5403, "pool": 4770, "as": 2004, "rosen": 21701, "##\u1d4d": 30036, "##bank": 9299, "##ske": 17140, "ours": 14635, "easing": 24070, "##ari": 8486, "icon": 12696, "successes": 14152, "##\u5b50": 30342, "coroner": 22896, "helmet": 10412, "pale": 5122, "san": 2624, "rainy": 16373, "##\u0292": 29704, "wryly": 28325, "colors": 6087, "resisting": 22363, "##chman": 19944, "possession": 6664, "augustus": 11668, "##dna": 28911, "kissed": 4782, "[unused907]": 912, "nomenclature": 23718, "folding": 12745, "##zu": 9759, "bon": 14753, "final": 2345, "chandra": 16469, "##ece": 26005, "excerpt": 28142, "[unused136]": 141, "ion": 10163, "imported": 10964, "toxin": 29090, "semantic": 21641, "crew": 3626, "##isson": 24077, "blocked": 8534, "##imi": 27605, "porter": 8716, "revisions": 24699, "d": 1040, "realm": 8391, "fuels": 20145, "nino": 20801, "dismissal": 15322, "offender": 25042, "retrieve": 12850, "confirming": 19195, "age": 2287, "2500": 25108, "candles": 14006, "stroked": 11699, "45": 3429, "telecom": 18126, "frey": 20068, "##\u98a8": 30503, "backbone": 21505, "guitar": 2858, "fractured": 21726, "##ject": 20614, "hilarious": 26316, "##lid": 21273, "bilingual": 17636, "curse": 8364, "corrosion": 24625, "yin": 18208, "sui": 24086, "newt": 25597, "disputes": 11936, "girlfriends": 27408, "vr": 27830, "marble": 7720, "corrupt": 13593, "removes": 20362, "hernandez": 13688, "corsica": 27047, "arterial": 25543, "sultanate": 21308, "ghz": 29066, "calculus": 19276, "thom": 19438, "##dos": 12269, "pastor": 9220, "[unused707]": 712, "##ese": 6810, "spec": 28699, "honeymoon": 19227, "[unused520]": 525, "grupo": 26678, "investigations": 9751, "##lifting": 26644, "termination": 18287, "bunker": 15742, "others": 2500, "syndication": 26973, "72": 5824, "realized": 3651, "originally": 2761, "##nik": 8238, "\u0f44": 1427, "##\u592a": 30338, "titans": 13785, "wednesday": 9317, "116": 12904, "[unused676]": 681, "lau": 21360, "hardened": 15015, "displayed": 6913, "fail": 8246, "therapeutic": 17261, "ultra": 11087, "breathed": 8726, "##86": 20842, "##\u305f": 30187, "husband": 3129, "standardized": 16367, "applies": 12033, "wheeler": 12819, "obtained": 4663, "systems": 3001, "cmll": 25395, "robe": 11111, "improve": 5335, "knew": 2354, "##kara": 16566, "tobin": 28096, "russia": 3607, "block": 3796, "geology": 13404, "retains": 14567, "##ropriation": 26121, "mafia": 13897, "flown": 10583, "eliminated": 5892, "entrepreneurship": 20213, "tendencies": 20074, "furious": 9943, "delivers": 18058, "maud": 21696, "lime": 14123, "shrine": 9571, "graders": 23256, "compulsion": 27638, "##\u0576": 29778, "gentle": 7132, "##ree": 9910, "consequences": 8465, "internationals": 27340, "quiz": 19461, "scripture": 18919, "entrusted": 18011, "temperament": 26270, "gus": 12670, "##tance": 26897, "rights": 2916, "exploration": 8993, "gloves": 11875, "phillip": 10852, "ap": 9706, "incorporated": 5100, "innocent": 7036, "bite": 6805, "manual": 6410, "burst": 6532, "##nant": 16885, "creates": 9005, "##time": 7292, "patents": 13979, "201": 16345, "visual": 5107, "matches": 3503, "wavy": 23098, "##sius": 24721, "supervise": 28589, "mumbai": 8955, "anymore": 4902, "enrolled": 8302, "##pro": 21572, "blackout": 26717, "blooms": 29037, "authentication": 27280, "hawk": 9881, "mental": 5177, "mastery": 26364, "##\u0142aw": 19704, "1908": 5316, "batter": 23801, "delight": 12208, "briefs": 28760, "simplicity": 17839, "\u05db": 1252, "neill": 11511, "people": 2111, "incoming": 14932, "parishes": 11600, "mechanisms": 10595, "lied": 9828, "2008": 2263, "defects": 18419, "java": 9262, "\u2099": 1568, "gundam": 26152, "##side": 7363, "nevertheless": 6600, "##\u524d": 30302, "present": 2556, "##\u05e1": 29804, "dive": 11529, "bmg": 24499, "medicare": 27615, "flotilla": 17150, "shouted": 6626, "fortunate": 19590, "millions": 8817, "jaws": 16113, "instructions": 8128, "altitudes": 21973, "##\u306c": 30195, "##kins": 14322, "arranged": 5412, "protesters": 13337, "raging": 17559, "intently": 16170, "muttering": 22581, "##gun": 12734, "shelves": 15475, "riches": 26768, "tracing": 16907, "steal": 8954, "judo": 19083, "plots": 14811, "condemnation": 26248, "educated": 5161, "\u092d": 1330, "dwellers": 28857, "[unused891]": 896, "meaningless": 25120, "merry": 12831, "works": 2573, "marines": 9622, "sirens": 20675, "mounted": 5614, "projecting": 18398, "reigned": 21236, "shaped": 5044, "contributions": 5857, "1703": 28366, "60": 3438, "kato": 27496, "bass": 3321, "##ogo": 22844, "##bry": 25731, "lyon": 10241, "ape": 23957, "garth": 21523, "transmissions": 21670, "poly": 26572, "hammersmith": 28420, "\u5d0e": 1834, "downstream": 13248, "downward": 14047, "\u1161": 1470, "street": 2395, "##dog": 16168, "\u092a": 1328, "hearst": 25419, "sven": 21313, "##np": 16275, "argyll": 27365, "##\u0627": 25573, "opportunity": 4495, "praying": 14488, "awakening": 16936, "swamp": 11963, "flynn": 13259, "\u3002": 1636, "\u00a5": 1071, "##5": 2629, "centres": 8941, "raul": 16720, "grandparents": 14472, "services": 2578, "logo": 8154, "\u0905": 1311, "subsidy": 28768, "shadow": 5192, "researcher": 10753, "esa": 28776, "music": 2189, "weakening": 22031, "[unused98]": 99, "achieved": 4719, "kuwait": 13085, "helm": 16254, "efficiently": 18228, "##ool": 13669, "texans": 23246, "painters": 12499, "repository": 22409, "own": 2219, "sight": 4356, "##hill": 7100, "implements": 22164, "indifferent": 24436, "testosterone": 25937, "spanish": 3009, "anthropology": 12795, "amateurs": 24361, "##\u68ee": 30408, "beside": 3875, "their": 2037, "##tou": 24826, "never": 2196, "##ment": 3672, "lori": 18669, "clown": 15912, "\u0259": 1114, "sheltered": 18304, "pods": 26723, "porn": 22555, "bribes": 29117, "ministerial": 18645, "los": 3050, "eve": 6574, "##path": 15069, "##sio": 20763, "##llins": 26655, "##mos": 15530, "urbana": 27929, "##\u09b7": 29911, "emmanuel": 14459, "##\u4ec1": 30284, "dispose": 27764, "passing": 4458, "##\u0578": 29779, "necessitated": 29611, "blend": 12586, "421": 29403, "##dal": 9305, "spherical": 18970, "##akh": 27573, "ventura": 21151, "kyle": 7648, "benton": 18685, "bois": 19651, "milling": 22491, "exchanged": 10573, "##sie": 11741, "positioned": 10959, "\u3088": 1684, "wedding": 5030, "silvia": 27827, "swam": 16849, "##igo": 14031, "[unused828]": 833, "aiming": 13659, "enlisted": 9417, "[unused544]": 549, "alabama": 6041, "reset": 25141, "slug": 23667, "jobs": 5841, "deed": 15046, "diagrams": 26309, "thousand": 4595, ":": 1024, "inch": 4960, "##vious": 24918, "##\u11b7": 30023, "everyone": 3071, "1999": 2639, "##\u116f": 30015, "clayton": 11811, "229": 22777, "revision": 13921, "crater": 11351, "##ein": 12377, "lacrosse": 13488, "stalk": 23899, "##nock": 18057, "1791": 14362, "mana": 24951, "##sion": 10992, "elevators": 19406, "maintenance": 6032, "sci": 16596, "robbie": 12289, "[unused378]": 383, "haunting": 20161, "supplemented": 20585, "cobb": 17176, "creeks": 24974, "extracted": 15901, "subsequent": 4745, "transitional": 17459, "levels": 3798, "northernmost": 22037, "hero": 5394, "##gp": 21600, "traditionally": 6964, "dungeons": 20264, "textbooks": 18841, "tajikistan": 23538, "uncles": 27328, "##vil": 14762, "##ja": 3900, "newsweek": 26948, "guidance": 8606, "ruben": 19469, "[unused983]": 988, "##riders": 28116, "sinatra": 19643, "piled": 17835, "jamie": 6175, "satellite": 5871, "rocks": 5749, "\u0e27": 1419, "dug": 8655, "ones": 3924, "sincerely": 25664, "pharmacy": 13882, "##ging": 4726, "resented": 27188, "officer": 2961, "hand": 2192, "##nae": 17452, "flu": 19857, "guangzhou": 18693, "reza": 26323, "54": 5139, "nice": 3835, "celestial": 17617, "hungry": 7501, "ezio": 23043, "clemson": 25906, "##ncy": 9407, "staging": 15308, "helps": 7126, "##mouth": 14359, "[unused933]": 938, "lebanon": 8341, "leyte": 27214, "loren": 28779, "\u1d43": 1496, "skating": 10080, "generators": 16937, "collaborator": 18843, "astro": 28625, "bono": 23648, "##wine": 21924, "agents": 6074, "disappearance": 13406, "bewildered": 24683, "##gnon": 26977, "acc": 16222, "insurance": 5427, "religion": 4676, "motif": 16226, "ricky": 11184, "##ffs": 21807, "preferring": 21393, "api": 17928, "pa": 6643, "momma": 23603, "ballots": 17069, "flutter": 23638, "editing": 9260, "numbering": 15200, "barons": 21487, "genocide": 14052, "\u0bae": 1389, "##tsky": 26824, "apologize": 12134, "critics": 4401, "##ster": 6238, "talking": 3331, "playboy": 18286, "sportsman": 27168, "##ler": 3917, "##eno": 16515, "\u2212": 1597, "chilly": 24222, "##lli": 6894, "governor": 3099, "archway": 28189, "factual": 25854, "arrived": 3369, "[unused709]": 714, "##js": 22578, "##gpur": 25758, "nielsen": 13188, "iraq": 5712, "massage": 21881, "widening": 17973, "realistic": 12689, "##lina": 13786, "tri": 13012, "brace": 17180, "bus": 3902, "##ieg": 28872, "fairchild": 24258, "turret": 14493, "dame": 8214, "papers": 4981, "##\u0131": 11722, "##yya": 19903, "[unused319]": 324, "catholics": 10774, "claude": 8149, "cloud": 6112, "rob": 6487, "en": 4372, "scout": 7464, "baton": 15302, "sabha": 11200, "encompass": 25281, "pages": 5530, "mixtape": 18713, "suit": 4848, "##owski": 15249, "oro": 20298, "joking": 16644, "##long": 10052, "adventurous": 29118, "brentford": 26550, "[unused423]": 428, "[unused159]": 164, "parades": 26635, "##vino": 26531, "\u1103": 1457, "ramos": 18882, "##\u207a": 12744, "monarchy": 12078, "##ques": 10997, "lighting": 7497, "items": 5167, "stifled": 27146, "##kulam": 28871, "##missible": 26770, "explain": 4863, "jurgen": 23171, "##bala": 25060, "alejandro": 16810, "establish": 5323, "banned": 7917, "##\u09c7": 29917, "divisions": 5908, "##ners": 16912, "##\u2295": 30139, "##\u09b6": 29910, "terms": 3408, "pomeranian": 17717, "##gree": 28637, "##ven": 8159, "immensely": 24256, "##able": 3085, "norma": 20692, "schedules": 20283, "harsh": 8401, "##\u0f62": 29970, "horne": 24084, "biology": 7366, "##hurst": 10510, "sound": 2614, "gunter": 27834, "outrageous": 25506, "stunning": 14726, "commodities": 21955, "aiding": 24791, "watford": 21740, "##ciation": 23247, "lasers": 23965, "\u0baf": 1390, "mercedes": 10793, "##gus": 12349, "conway": 14783, "resurgence": 26303, "##hett": 28499, "horst": 28565, "plum": 22088, "##jah": 18878, "##rong": 17583, "following": 2206, "##ze": 4371, "##ny": 4890, "1870": 6940, "[unused900]": 905, "overs": 15849, "compounds": 10099, "reason": 3114, "##ead": 13775, "hard": 2524, "wat": 28194, "intra": 26721, "biological": 6897, "twitching": 25402, "indicated": 5393, "palo": 24326, "standardization": 28648, "scheduled": 5115, "sparks": 12300, "rus": 22949, "predominantly": 9197, "rewards": 19054, "milano": 21613, "allotted": 23932, "kgb": 25467, "immature": 26838, "gulp": 26546, "bankruptcy": 10528, "reacher": 22970, "\u3059": 1658, "raining": 24057, "##ricting": 28827, "\u0e40": 1423, "caravan": 17184, "knight": 5000, "medicine": 4200, "[unused314]": 319, "regulatory": 10738, "finger": 4344, "administrators": 15631, "khorasan": 23225, "napkin": 20619, "pagan": 14318, "\u5cf6": 1833, "sessions": 6521, "thumped": 28963, "specialist": 8325, "wonder": 4687, "osaka": 13000, "students": 2493, "emi": 12495, "grimes": 24865, "spectacle": 21177, "gustavo": 24801, "##ulin": 18639, "huffed": 25014, "##tort": 25485, "reacts": 27325, "lethal": 12765, "barn": 8659, "##yes": 23147,
[...]
